{"version": "1.0", "truncation": null, "padding": null, "added_tokens": [], "normalizer": {"type": "Sequence", "normalizers": [{"type": "Prepend", "prepend": "▁"}, {"type": "Replace", "pattern": {"String": " "}, "content": "▁"}]}, "pre_tokenizer": null, "post_processor": null, "decoder": {"type": "Sequence", "decoders": [{"type": "Replace", "pattern": {"String": "▁"}, "content": " "}, {"type": "ByteFallback"}]}, "model": {"type": "BPE", "dropout": null, "unk_token": "<unk>", "continuing_subword_prefix": null, "end_of_word_suffix": null, "fuse_unk": true, "byte_fallback": true, "vocab": {"<unk>": 0, "<s>": 1, "</s>": 2, "<0x00>": 3, "<0x01>": 4, "<0x02>": 5, "<0x03>": 6, "<0x04>": 7, "<0x05>": 8, "<0x06>": 9, "<0x07>": 10, "<0x08>": 11, "<0x09>": 12, "<0x0A>": 13, "<0x0B>": 14, "<0x0C>": 15, "<0x0D>": 16, "<0x0E>": 17, "<0x0F>": 18, "<0x10>": 19, "<0x11>": 20, "<0x12>": 21, "<0x13>": 22, "<0x14>": 23, "<0x15>": 24, "<0x16>": 25, "<0x17>": 26, "<0x18>": 27, "<0x19>": 28, "<0x1A>": 29, "<0x1B>": 30, "<0x1C>": 31, "<0x1D>": 32, "<0x1E>": 33, "<0x1F>": 34, "<0x20>": 35, "<0x21>": 36, "<0x22>": 37, "<0x23>": 38, "<0x24>": 39, "<0x25>": 40, "<0x26>": 41, "<0x27>": 42, "<0x28>": 43, "<0x29>": 44, "<0x2A>": 45, "<0x2B>": 46, "<0x2C>": 47, "<0x2D>": 48, "<0x2E>": 49, "<0x2F>": 50, "<0x30>": 51, "<0x31>": 52, "<0x32>": 53, "<0x33>": 54, "<0x34>": 55, "<0x35>": 56, "<0x36>": 57, "<0x37>": 58, "<0x38>": 59, "<0x39>": 60, "<0x3A>": 61, "<0x3B>": 62, "<0x3C>": 63, "<0x3D>": 64, "<0x3E>": 65, "<0x3F>": 66, "<0x40>": 67, "<0x41>": 68, "<0x42>": 69, "<0x43>": 70, "<0x44>": 71, "<0x45>": 72, "<0x46>": 73, "<0x47>": 74, "<0x48>": 75, "<0x49>": 76, "<0x4A>": 77, "<0x4B>": 78, "<0x4C>": 79, "<0x4D>": 80, "<0x4E>": 81, "<0x4F>": 82, "<0x50>": 83, "<0x51>": 84, "<0x52>": 85, "<0x53>": 86, "<0x54>": 87, "<0x55>": 88, "<0x56>": 89, "<0x57>": 90, "<0x58>": 91, "<0x59>": 92, "<0x5A>": 93, "<0x5B>": 94, "<0x5C>": 95, "<0x5D>": 96, "<0x5E>": 97, "<0x5F>": 98, "<0x60>": 99, "<0x61>": 100, "<0x62>": 101, "<0x63>": 102, "<0x64>": 103, "<0x65>": 104, "<0x66>": 105, "<0x67>": 106, "<0x68>": 107, "<0x69>": 108, "<0x6A>": 109, "<0x6B>": 110, "<0x6C>": 111, "<0x6D>": 112, "<0x6E>": 113, "<0x6F>": 114, "<0x70>": 115, "<0x71>": 116, "<0x72>": 117, "<0x73>": 118, "<0x74>": 119, "<0x75>": 120, "<0x76>": 121, "<0x77>": 122, "<0x78>": 123, "<0x79>": 124, "<0x7A>": 125, "<0x7B>": 126, "<0x7C>": 127, "<0x7D>": 128, "<0x7E>": 129, "<0x7F>": 130, "<0x80>": 131, "<0x81>": 132, "<0x82>": 133, "<0x83>": 134, "<0x84>": 135, "<0x85>": 136, "<0x86>": 137, "<0x87>": 138, "<0x88>": 139, "<0x89>": 140, "<0x8A>": 141, "<0x8B>": 142, "<0x8C>": 143, "<0x8D>": 144, "<0x8E>": 145, "<0x8F>": 146, "<0x90>": 147, "<0x91>": 148, "<0x92>": 149, "<0x93>": 150, "<0x94>": 151, "<0x95>": 152, "<0x96>": 153, "<0x97>": 154, "<0x98>": 155, "<0x99>": 156, "<0x9A>": 157, "<0x9B>": 158, "<0x9C>": 159, "<0x9D>": 160, "<0x9E>": 161, "<0x9F>": 162, "<0xA0>": 163, "<0xA1>": 164, "<0xA2>": 165, "<0xA3>": 166, "<0xA4>": 167, "<0xA5>": 168, "<0xA6>": 169, "<0xA7>": 170, "<0xA8>": 171, "<0xA9>": 172, "<0xAA>": 173, "<0xAB>": 174, "<0xAC>": 175, "<0xAD>": 176, "<0xAE>": 177, "<0xAF>": 178, "<0xB0>": 179, "<0xB1>": 180, "<0xB2>": 181, "<0xB3>": 182, "<0xB4>": 183, "<0xB5>": 184, "<0xB6>": 185, "<0xB7>": 186, "<0xB8>": 187, "<0xB9>": 188, "<0xBA>": 189, "<0xBB>": 190, "<0xBC>": 191, "<0xBD>": 192, "<0xBE>": 193, "<0xBF>": 194, "<0xC0>": 195, "<0xC1>": 196, "<0xC2>": 197, "<0xC3>": 198, "<0xC4>": 199, "<0xC5>": 200, "<0xC6>": 201, "<0xC7>": 202, "<0xC8>": 203, "<0xC9>": 204, "<0xCA>": 205, "<0xCB>": 206, "<0xCC>": 207, "<0xCD>": 208, "<0xCE>": 209, "<0xCF>": 210, "<0xD0>": 211, "<0xD1>": 212, "<0xD2>": 213, "<0xD3>": 214, "<0xD4>": 215, "<0xD5>": 216, "<0xD6>": 217, "<0xD7>": 218, "<0xD8>": 219, "<0xD9>": 220, "<0xDA>": 221, "<0xDB>": 222, "<0xDC>": 223, "<0xDD>": 224, "<0xDE>": 225, "<0xDF>": 226, "<0xE0>": 227, "<0xE1>": 228, "<0xE2>": 229, "<0xE3>": 230, "<0xE4>": 231, "<0xE5>": 232, "<0xE6>": 233, "<0xE7>": 234, "<0xE8>": 235, "<0xE9>": 236, "<0xEA>": 237, "<0xEB>": 238, "<0xEC>": 239, "<0xED>": 240, "<0xEE>": 241, "<0xEF>": 242, "<0xF0>": 243, "<0xF1>": 244, "<0xF2>": 245, "<0xF3>": 246, "<0xF4>": 247, "<0xF5>": 248, "<0xF6>": 249, "<0xF7>": 250, "<0xF8>": 251, "<0xF9>": 252, "<0xFA>": 253, "<0xFB>": 254, "<0xFC>": 255, "<0xFD>": 256, "<0xFE>": 257, "<0xFF>": 258, "er": 259, "um": 260, "qu": 261, "▁e": 262, "▁a": 263, "is": 264, "in": 265, "▁p": 266, "▁s": 267, "us": 268, "it": 269, "▁c": 270, "en": 271, "at": 272, "on": 273, "am": 274, "or": 275, "▁qu": 276, "em": 277, "es": 278, "▁m": 279, "▁d": 280, "▁n": 281, "▁in": 282, "an": 283, "▁t": 284, "li": 285, "ur": 286, "ae": 287, "ti": 288, "os": 289, "▁f": 290, "▁i": 291, "▁v": 292, "ar": 293, "et": 294, "que": 295, "un": 296, "ul": 297, "ic": 298, "▁et": 299, "▁r": 300, "ut": 301, "▁pr": 302, "im": 303, "▁h": 304, "ec": 305, "as": 306, "om": 307, "id": 308, "ent": 309, "ib": 310, "▁es": 311, "▁ad": 312, "ed": 313, "▁con": 314, "▁l": 315, "ac": 316, "oc": 317, "ll": 318, "▁ex": 319, "ant": 320, "ere": 321, "od": 322, "unt": 323, "ia": 324, "se": 325, "▁est": 326, "ibus": 327, "tr": 328, "ud": 329, "op": 330, "ol": 331, "▁de": 332, "▁ut": 333, "▁su": 334, "▁re": 335, "ab": 336, "ir": 337, "▁non": 338, "ter": 339, "▁A": 340, "al": 341, "ati": 342, "▁C": 343, "gn": 344, "il": 345, "▁cum": 346, "ius": 347, "end": 348, "ta": 349, "▁per": 350, "orum": 351, "iss": 352, "ci": 353, "▁g": 354, "per": 355, "▁an": 356, "▁P": 357, "▁u": 358, "uc": 359, "ium": 360, "▁S": 361, "enti": 362, "ens": 363, "te": 364, "▁di": 365, "▁b": 366, "▁si": 367, "▁cons": 368, "eb": 369, "▁ac": 370, "▁tr": 371, "el": 372, "ili": 373, "▁ma": 374, "eg": 375, "ob": 376, "io": 377, "▁quod": 378, "▁qui": 379, "▁om": 380, "▁ab": 381, "▁pos": 382, "▁se": 383, "ot": 384, "▁aut": 385, "▁ali": 386, "▁omn": 387, "▁quam": 388, "▁M": 389, "▁pro": 390, "▁quae": 391, "est": 392, "▁ca": 393, "erat": 394, "uit": 395, "and": 396, "▁ne": 397, "▁ar": 398, "▁sed": 399, "▁par": 400, "ect": 401, "▁prae": 402, "av": 403, "ell": 404, "▁R": 405, "▁im": 406, "atur": 407, "lic": 408, "▁I": 409, "bus": 410, "ore": 411, "▁quid": 412, "▁fac": 413, "▁quo": 414, "ess": 415, "ita": 416, "ri": 417, "▁dic": 418, "▁T": 419, "▁ip": 420, "▁op": 421, "de": 422, "▁nec": 423, "▁pl": 424, "ine": 425, "itur": 426, "ub": 427, "▁ill": 428, "▁esse": 429, "ort": 430, "▁L": 431, "▁me": 432, "are": 433, "itat": 434, "ep": 435, "ad": 436, "▁H": 437, "iam": 438, "tum": 439, "▁Rom": 440, "quam": 441, "ation": 442, "eret": 443, "ari": 444, "▁at": 445, "▁inter": 446, "ion": 447, "▁co": 448, "emp": 449, "▁com": 450, "▁ver": 451, "▁hab": 452, "re": 453, "tra": 454, "unc": 455, "▁un": 456, "▁id": 457, "tiam": 458, "▁tam": 459, "tis": 460, "ih": 461, "▁am": 462, "atus": 463, "erunt": 464, "eri": 465, "▁ob": 466, "▁N": 467, "▁sp": 468, "iv": 469, "ra": 470, "▁or": 471, "▁etiam": 472, "pp": 473, "▁E": 474, "▁Q": 475, "▁ips": 476, "itum": 477, "isse": 478, "gr": 479, "▁fu": 480, "atis": 481, "atum": 482, "erit": 483, "▁sunt": 484, "fic": 485, "▁tu": 486, "▁pat": 487, "to": 488, "▁Roman": 489, "bi": 490, "cip": 491, "aec": 492, "tor": 493, "▁leg": 494, "ata": 495, "▁al": 496, "▁en": 497, "▁li": 498, "omin": 499, "▁atque": 500, "ov": 501, "tus": 502, "arum": 503, "go": 504, "▁V": 505, "issim": 506, "urb": 507, "▁hos": 508, "▁cr": 509, "▁consul": 510, "▁qua": 511, "▁D": 512, "▁sc": 513, "err": 514, "▁mul": 515, "▁G": 516, "▁vid": 517, "▁Qu": 518, "ig": 519, "▁sol": 520, "▁sub": 521, "▁hoc": 522, "set": 523, "▁enim": 524, "erc": 525, "und": 526, "ibi": 527, "▁ins": 528, "▁res": 529, "▁mod": 530, "▁inc": 531, "▁ita": 532, "▁vir": 533, "ior": 534, "up": 535, "▁anim": 536, "▁prim": 537, "▁iam": 538, "erum": 539, "▁nos": 540, "ers": 541, "▁vel": 542, "ap": 543, "▁pot": 544, "▁temp": 545, "gis": 546, "erent": 547, "▁prop": 548, "aud": 549, "ui": 550, "▁oc": 551, "▁loc": 552, "▁cor": 553, "▁st": 554, "eris": 555, "ull": 556, "tin": 557, "tit": 558, "▁cap": 559, "▁lib": 560, "iae": 561, "erant": 562, "aes": 563, "uli": 564, "▁fr": 565, "▁gr": 566, "tim": 567, "▁sit": 568, "isset": 569, "iis": 570, "ans": 571, "▁dis": 572, "itus": 573, "▁cl": 574, "▁dec": 575, "▁te": 576, "▁tum": 577, "▁ag": 578, "ag": 579, "▁tamen": 580, "xim": 581, "▁sen": 582, "▁acc": 583, "▁cur": 584, "▁ven": 585, "▁erat": 586, "▁eius": 587, "ert": 588, "▁cas": 589, "▁F": 590, "▁urb": 591, "▁quoque": 592, "orem": 593, "inis": 594, "▁sum": 595, "▁eo": 596, "▁reg": 597, "▁pop": 598, "▁autem": 599, "era": 600, "▁is": 601, "▁'": 602, "antur": 603, "▁imp": 604, "▁mil": 605, "etur": 606, "ven": 607, "▁bell": 608, "inc": 609, "▁haec": 610, "▁neque": 611, "▁tant": 612, "▁sim": 613, "▁equ": 614, "ug": 615, "▁rec": 616, "ina": 617, "▁fl": 618, "ex": 619, "▁magn": 620, "▁ea": 621, "▁du": 622, "erv": 623, "▁esset": 624, "iter": 625, "▁gen": 626, "eli": 627, "▁nam": 628, "▁quidem": 629, "tium": 630, "▁caus": 631, "▁pa": 632, "▁sic": 633, "▁post": 634, "▁vol": 635, "ihil": 636, "ass": 637, "oris": 638, "umque": 639, "▁super": 640, "ebat": 641, "▁inf": 642, "▁pu": 643, "▁magis": 644, "▁mor": 645, "▁aliqu": 646, "esc": 647, "▁exerc": 648, "▁quibus": 649, "atio": 650, "▁imper": 651, "▁min": 652, "▁man": 653, "tibus": 654, "ff": 655, "▁arm": 656, "▁po": 657, "ing": 658, "▁ante": 659, "▁for": 660, "tem": 661, "ihi": 662, "▁nihil": 663, "▁comm": 664, "ro": 665, "▁mihi": 666, "ris": 667, "▁red": 668, "irc": 669, "▁rem": 670, "▁quem": 671, "entis": 672, "▁exp": 673, "▁B": 674, "int": 675, "tu": 676, "endum": 677, "▁homin": 678, "entes": 679, "▁vic": 680, "▁sec": 681, "▁modo": 682, "▁duc": 683, "ini": 684, "▁poss": 685, "▁ius": 686, "imus": 687, "ene": 688, "ali": 689, "ulo": 690, "ate": 691, "▁ind": 692, "▁ded": 693, "▁circ": 694, "tius": 695, "▁ann": 696, "ilia": 697, "entem": 698, "▁occ": 699, "▁med": 700, "ern": 701, "atione": 702, "ator": 703, "uius": 704, "ici": 705, "▁fuit": 706, "▁num": 707, "ux": 708, "tion": 709, "ero": 710, "▁pub": 711, "entia": 712, "inde": 713, "iti": 714, "▁ubi": 715, "▁ap": 716, "vers": 717, "▁quia": 718, "▁nunc": 719, "ito": 720, "isi": 721, "▁patr": 722, "▁ter": 723, "▁aud": 724, "▁ipse": 725, "isque": 726, "eo": 727, "itate": 728, "entur": 729, "untur": 730, "▁tibi": 731, "▁omnia": 732, "▁conc": 733, "entum": 734, "ente": 735, "▁civ": 736, "▁public": 737, "▁opp": 738, "▁O": 739, "▁null": 740, "ii": 741, "th": 742, "▁praes": 743, "ix": 744, "▁maxim": 745, "▁exc": 746, "▁voc": 747, "▁alter": 748, "inem": 749, "ph": 750, "all": 751, "itis": 752, "ato": 753, "entibus": 754, "avit": 755, "ulum": 756, "▁eum": 757, "ch": 758, "lig": 759, "ulis": 760, "▁ten": 761, "▁def": 762, "▁san": 763, "▁terr": 764, "▁ego": 765, "▁rep": 766, "▁potest": 767, "▁sem": 768, "▁app": 769, "ire": 770, "ites": 771, "▁comp": 772, "itas": 773, "endi": 774, "▁fec": 775, "udic": 776, "rip": 777, "▁fer": 778, "▁o": 779, "▁inde": 780, "▁des": 781, "▁An": 782, "▁corp": 783, "dam": 784, "▁his": 785, "▁trib": 786, "ula": 787, "▁nisi": 788, "▁cet": 789, "▁mis": 790, "atu": 791, "▁mal": 792, "fect": 793, "ora": 794, "▁us": 795, "▁fort": 796, "▁sine": 797, "▁sign": 798, "ann": 799, "▁quas": 800, "▁Ph": 801, "obis": 802, "▁dom": 803, "lius": 804, "▁nostr": 805, "▁trans": 806, "▁inv": 807, "▁sal": 808, "▁deinde": 809, "▁obs": 810, "▁sibi": 811, "▁ign": 812, "ique": 813, "itu": 814, "qui": 815, "pe": 816, "▁quos": 817, "▁summ": 818, "ura": 819, "▁fid": 820, "▁ing": 821, "ores": 822, "ign": 823, "ios": 824, "▁ul": 825, "▁sus": 826, "yr": 827, "ationem": 828, "▁tot": 829, "▁conf": 830, "▁mem": 831, "▁sae": 832, "▁cae": 833, "tes": 834, "▁er": 835, "▁deb": 836, "rim": 837, "tic": 838, "ffic": 839, "git": 840, "▁omnes": 841, "▁iudic": 842, "▁car": 843, "▁soc": 844, "▁dix": 845, "▁bon": 846, "gu": 847, "▁ae": 848, "▁pugn": 849, "▁lon": 850, "▁fi": 851, "▁pet": 852, "lo": 853, "▁proc": 854, "ando": 855, "▁nov": 856, "oli": 857, "eat": 858, "rum": 859, "▁ille": 860, "ve": 861, "eretur": 862, "ebant": 863, "aret": 864, "itatem": 865, "pon": 866, "▁causa": 867, "▁fam": 868, "▁as": 869, "▁cred": 870, "▁mon": 871, "▁quis": 872, "▁it": 873, "issent": 874, "▁tantum": 875, "enta": 876, "pic": 877, "▁quin": 878, "▁hic": 879, "▁col": 880, "ias": 881, "▁vero": 882, "▁vit": 883, "▁auc": 884, "▁il": 885, "ip": 886, "▁put": 887, "▁abs": 888, "tat": 889, "▁nav": 890, "▁simul": 891, "▁tribun": 892, "enda": 893, "ione": 894, "tio": 895, "▁pleb": 896, "▁disc": 897, "urum": 898, "▁agr": 899, "ionem": 900, "▁lit": 901, "▁cui": 902, "▁In": 903, "▁Gr": 904, "▁ves": 905, "▁hon": 906, "▁eos": 907, "▁die": 908, "ile": 909, "ill": 910, "isc": 911, "▁noc": 912, "▁sac": 913, "ilium": 914, "dic": 915, "▁mo": 916, "▁apud": 917, "II": 918, "▁neg": 919, "▁os": 920, "quit": 921, "▁uti": 922, "▁mat": 923, "ino": 924, "sus": 925, "vis": 926, "ric": 927, "▁illa": 928, "tam": 929, "▁omnibus": 930, "si": 931, "▁bellum": 932, "anti": 933, "▁erant": 934, "▁ped": 935, "dem": 936, "▁cer": 937, "▁gl": 938, "▁satis": 939, "tul": 940, "▁pon": 941, "▁quant": 942, "▁fug": 943, "▁cuius": 944, "inum": 945, "▁to": 946, "▁verb": 947, "▁castra": 948, "▁nom": 949, "▁ser": 950, "▁iu": 951, "▁vul": 952, "▁serv": 953, "itud": 954, "▁pec": 955, "▁vis": 956, "aque": 957, "▁iis": 958, "ite": 959, "elli": 960, "▁ref": 961, "etu": 962, "aris": 963, "▁Th": 964, "abat": 965, "▁long": 966, "oribus": 967, "inus": 968, "atos": 969, "▁lic": 970, "▁U": 971, "▁plur": 972, "▁circum": 973, "▁primum": 974, "▁eam": 975, "▁pac": 976, "▁dum": 977, "▁eorum": 978, "uti": 979, "▁aur": 980, "endo": 981, "tae": 982, "▁advers": 983, "sit": 984, "▁prov": 985, "ev": 986, "tos": 987, "▁faci": 988, "▁natur": 989, "▁Ita": 990, "ilis": 991, "gitur": 992, "▁Mar": 993, "▁Al": 994, "▁bene": 995, "▁pra": 996, "tris": 997, "▁sua": 998, "emus": 999, "▁adm": 1000, "tere": 1001, "▁auctor": 1002, "▁inte": 1003, "▁contra": 1004, "▁ess": 1005, "▁At": 1006, "urr": 1007, "▁maxime": 1008, "incip": 1009, "▁lab": 1010, "▁ads": 1011, "▁amic": 1012, "one": 1013, "▁eff": 1014, "ulos": 1015, "tend": 1016, "andum": 1017, "ret": 1018, "▁princip": 1019, "lin": 1020, "▁vet": 1021, "▁haud": 1022, "alis": 1023, "▁rei": 1024, "▁um": 1025, "anc": 1026, "ani": 1027, "▁em": 1028, "tas": 1029, "▁aequ": 1030, "idit": 1031, "▁port": 1032, "unti": 1033, "▁praeter": 1034, "▁lac": 1035, "ua": 1036, "▁imm": 1037, "ne": 1038, "▁coll": 1039, "▁omnium": 1040, "▁trad": 1041, "▁minus": 1042, "ie": 1043, "atem": 1044, "▁prod": 1045, "▁milit": 1046, "▁coni": 1047, "▁dol": 1048, "▁maior": 1049, "▁urbem": 1050, "ord": 1051, "itatis": 1052, "▁aci": 1053, "▁Ar": 1054, "▁plac": 1055, "▁inquit": 1056, "oniam": 1057, "▁parte": 1058, "▁rerum": 1059, "▁ibi": 1060, "adem": 1061, "antes": 1062, "▁ipsa": 1063, "▁Romani": 1064, "amn": 1065, "▁fortun": 1066, "▁fili": 1067, "▁itaque": 1068, "▁ei": 1069, "▁grav": 1070, "ecta": 1071, "▁cop": 1072, "▁nobis": 1073, "onis": 1074, "▁cogn": 1075, "▁cert": 1076, "▁sci": 1077, "▁praesid": 1078, "pos": 1079, "cc": 1080, "▁miss": 1081, "qua": 1082, "amus": 1083, "▁mit": 1084, "▁(": 1085, "▁prof": 1086, "gress": 1087, "▁aet": 1088, "ale": 1089, "sa": 1090, "arent": 1091, "▁regn": 1092, "▁hostium": 1093, "ax": 1094, "iorum": 1095, "oque": 1096, "▁ini": 1097, "▁div": 1098, "▁hum": 1099, "▁mun": 1100, "▁senatus": 1101, "▁Caes": 1102, "▁praec": 1103, "▁av": 1104, "▁arb": 1105, "▁milia": 1106, "irm": 1107, "▁ord": 1108, "entium": 1109, "▁litter": 1110, "▁essent": 1111, "ulus": 1112, "quid": 1113, "▁sing": 1114, "tro": 1115, "iones": 1116, "tur": 1117, "▁omnis": 1118, "rac": 1119, "▁igitur": 1120, "sum": 1121, "▁—": 1122, "▁lae": 1123, "▁scrip": 1124, "▁Cl": 1125, "emo": 1126, "▁idem": 1127, "▁suis": 1128, "▁dign": 1129, "▁appell": 1130, "▁semper": 1131, "ugn": 1132, "▁iur": 1133, "pan": 1134, "▁nomin": 1135, "vs": 1136, "▁dub": 1137, "▁praetor": 1138, "▁tim": 1139, "▁reli": 1140, "▁loco": 1141, "▁ret": 1142, "pr": 1143, "▁ed": 1144, "▁rebus": 1145, "▁illi": 1146, "iet": 1147, "▁,": 1148, "rib": 1149, "▁dies": 1150, "▁exs": 1151, "dum": 1152, "erentur": 1153, "▁sep": 1154, "og": 1155, "ei": 1156, "pect": 1157, "onem": 1158, "▁peric": 1159, "▁pul": 1160, "▁iac": 1161, "uis": 1162, "▁Hann": 1163, "▁det": 1164, "▁alia": 1165, "▁laud": 1166, "▁eadem": 1167, "pl": 1168, "▁His": 1169, "▁contin": 1170, "▁no": 1171, "esse": 1172, "▁suo": 1173, "▁luc": 1174, "▁dim": 1175, "▁adi": 1176, "▁lat": 1177, "aced": 1178, "▁mort": 1179, "lia": 1180, "uisse": 1181, "▁Sed": 1182, "ento": 1183, "ida": 1184, "▁Cor": 1185, "▁posse": 1186, "▁adh": 1187, "▁cel": 1188, "▁add": 1189, "▁tempore": 1190, "entiam": 1191, "▁adf": 1192, "odem": 1193, "eni": 1194, "ific": 1195, "▁Ch": 1196, "asse": 1197, "▁Car": 1198, "▁bello": 1199, "▁Sic": 1200, "▁accep": 1201, "andi": 1202, "uci": 1203, "▁ull": 1204, "▁sent": 1205, "▁liber": 1206, "▁prius": 1207, "▁el": 1208, "esti": 1209, "▁proeli": 1210, "erint": 1211, "▁cens": 1212, "antibus": 1213, "▁sint": 1214, "▁victor": 1215, "▁mar": 1216, "▁iub": 1217, "▁arma": 1218, "▁spec": 1219, "▁frat": 1220, "▁primo": 1221, "▁diu": 1222, "▁alii": 1223, "▁supp": 1224, "erem": 1225, "▁dem": 1226, "▁populi": 1227, "osque": 1228, "▁don": 1229, "▁arc": 1230, "▁ipsum": 1231, "amque": 1232, "▁belli": 1233, "aus": 1234, "▁turb": 1235, "▁illud": 1236, "▁fuisse": 1237, "su": 1238, "▁Quid": 1239, "ana": 1240, "▁doc": 1241, "tut": 1242, "▁memor": 1243, "▁multa": 1244, "ena": 1245, "▁pal": 1246, "▁respon": 1247, "inci": 1248, "▁del": 1249, "▁erit": 1250, "atim": 1251, "▁eodem": 1252, "▁;": 1253, "▁aux": 1254, "▁X": 1255, "antem": 1256, "ori": 1257, "eti": 1258, "▁quasi": 1259, "▁Hannib": 1260, "▁vos": 1261, "iunt": 1262, "▁unde": 1263, "▁cont": 1264, "esque": 1265, "▁unum": 1266, "ano": 1267, "▁mir": 1268, "▁ir": 1269, "▁pros": 1270, "idi": 1271, "oed": 1272, "uper": 1273, "▁vi": 1274, "ecti": 1275, "▁tempus": 1276, "▁secund": 1277, "▁hominum": 1278, "eres": 1279, "urg": 1280, "▁rap": 1281, "essit": 1282, "titud": 1283, "▁consules": 1284, "eribus": 1285, "ebatur": 1286, "▁prob": 1287, "anum": 1288, "▁saepe": 1289, "ilio": 1290, "▁nomen": 1291, "▁tra": 1292, "▁aed": 1293, "abant": 1294, "▁pauc": 1295, "▁pass": 1296, "▁sangu": 1297, "issimum": 1298, "▁Et": 1299, "▁cal": 1300, "▁habet": 1301, "ue": 1302, "▁arg": 1303, "▁ergo": 1304, "uere": 1305, "▁hanc": 1306, "▁Non": 1307, "uum": 1308, "itia": 1309, "uta": 1310, "▁Gal": 1311, "▁cup": 1312, "▁fieri": 1313, "▁propter": 1314, "▁pars": 1315, "▁ev": 1316, "enter": 1317, "▁solum": 1318, "▁redd": 1319, "asc": 1320, "utus": 1321, "▁ipsi": 1322, "▁sequ": 1323, "▁viv": 1324, "erb": 1325, "ym": 1326, "eper": 1327, "ons": 1328, "▁prom": 1329, "▁certam": 1330, "▁Romanis": 1331, "▁mov": 1332, "▁sil": 1333, "anis": 1334, "▁praed": 1335, "▁quorum": 1336, "▁fut": 1337, "uerunt": 1338, "▁Ma": 1339, "▁militum": 1340, "▁praecip": 1341, "▁cre": 1342, "ust": 1343, "▁cul": 1344, "va": 1345, "inae": 1346, "▁exercitus": 1347, "aria": 1348, "▁fin": 1349, "▁mut": 1350, "▁perm": 1351, "▁profect": 1352, "idem": 1353, "▁plus": 1354, "▁poter": 1355, "atam": 1356, "atae": 1357, "▁Cap": 1358, "▁aliquid": 1359, "rem": 1360, "le": 1361, "ectus": 1362, "ilius": 1363, "▁stud": 1364, "▁uir": 1365, "anda": 1366, "▁hac": 1367, "▁mur": 1368, "▁prope": 1369, "▁nulla": 1370, "▁magistr": 1371, "lium": 1372, "▁agm": 1373, "▁lev": 1374, "▁magna": 1375, "▁circa": 1376, "mod": 1377, "▁necess": 1378, "▁und": 1379, "ante": 1380, "▁tur": 1381, "▁fur": 1382, "▁hunc": 1383, "rig": 1384, "epit": 1385, "inta": 1386, "▁quoniam": 1387, "▁conv": 1388, "▁form": 1389, "▁perf": 1390, "▁Scip": 1391, "alem": 1392, "isti": 1393, "▁una": 1394, "▁nim": 1395, "▁ferr": 1396, "▁foed": 1397, "▁Maced": 1398, "▁val": 1399, "ionis": 1400, "anus": 1401, "oni": 1402, "▁Lat": 1403, "▁omni": 1404, "▁duo": 1405, "▁quic": 1406, "aeque": 1407, "ationis": 1408, "▁animo": 1409, "oll": 1410, "▁quad": 1411, "▁trium": 1412, "▁quidam": 1413, "quis": 1414, "▁pers": 1415, "▁“": 1416, "▁sup": 1417, "▁clam": 1418, "▁str": 1419, "tione": 1420, "▁virtut": 1421, "endam": 1422, "▁Af": 1423, "▁posset": 1424, "▁domin": 1425, "▁dedit": 1426, "thag": 1427, "▁od": 1428, "▁pecun": 1429, "▁.": 1430, "▁Romam": 1431, "▁As": 1432, "▁adv": 1433, "▁Br": 1434, "▁Sc": 1435, "▁Ap": 1436, "▁ep": 1437, "▁quantum": 1438, "▁exercitum": 1439, "▁scrib": 1440, "enis": 1441, "▁adversus": 1442, "osc": 1443, "idum": 1444, "▁sicut": 1445, "▁vide": 1446, "▁cunc": 1447, "uic": 1448, "iore": 1449, "ereb": 1450, "inam": 1451, "▁aus": 1452, "▁facere": 1453, "▁anno": 1454, "▁metu": 1455, "▁proxim": 1456, "andem": 1457, "▁cond": 1458, "lio": 1459, "▁int": 1460, "eram": 1461, "▁dicere": 1462, "▁patri": 1463, "aretur": 1464, "▁commun": 1465, "▁accip": 1466, "▁castris": 1467, "▁tem": 1468, "erm": 1469, "▁aliud": 1470, "▁vell": 1471, "edit": 1472, "▁hi": 1473, "▁quaes": 1474, "oqu": 1475, "▁illum": 1476, "▁diem": 1477, "▁locum": 1478, "itr": 1479, "ationes": 1480, "▁Graec": 1481, "▁sens": 1482, "arium": 1483, "amm": 1484, "▁salut": 1485, "▁urbe": 1486, "etum": 1487, "utum": 1488, "▁velut": 1489, "▁Hispan": 1490, "▁exercitu": 1491, "iri": 1492, "vi": 1493, "▁intell": 1494, "▁milites": 1495, "▁genus": 1496, "▁multitud": 1497, "▁huius": 1498, "▁class": 1499, "▁dixit": 1500, "▁partem": 1501, "▁postquam": 1502, "ilem": 1503, "venit": 1504, "▁optim": 1505, "▁uel": 1506, "lum": 1507, "▁armis": 1508, "▁ingen": 1509, "▁natura": 1510, "▁spect": 1511, "▁mea": 1512, "▁item": 1513, "ates": 1514, "▁Si": 1515, "tionem": 1516, "itibus": 1517, "▁Anti": 1518, "▁pati": 1519, "ebr": 1520, "▁quat": 1521, "edi": 1522, "imum": 1523, "▁mens": 1524, "▁tor": 1525, "▁opus": 1526, "sequ": 1527, "▁provinci": 1528, "asque": 1529, "▁mol": 1530, "▁Pr": 1531, "▁rev": 1532, "▁amb": 1533, "uri": 1534, "▁glor": 1535, "▁den": 1536, "▁hostes": 1537, "etus": 1538, "ane": 1539, "▁signa": 1540, "▁vig": 1541, "itio": 1542, "ionibus": 1543, "▁Fab": 1544, "▁nunti": 1545, "aeci": 1546, "uo": 1547, "▁praest": 1548, "▁ses": 1549, "iles": 1550, "▁rog": 1551, "issime": 1552, "etr": 1553, "tea": 1554, "▁animi": 1555, "▁factum": 1556, "hib": 1557, "ulc": 1558, "▁Am": 1559, "uisset": 1560, "▁homines": 1561, "ide": 1562, "▁potius": 1563, "▁vinc": 1564, "amp": 1565, "▁por": 1566, "▁tua": 1567, "entus": 1568, "▁supra": 1569, "▁numquam": 1570, "▁hinc": 1571, "ys": 1572, "▁facta": 1573, "rag": 1574, "▁possit": 1575, "num": 1576, "ido": 1577, "▁volunt": 1578, "▁contr": 1579, "eros": 1580, "▁nob": 1581, "▁Carthag": 1582, "▁manus": 1583, "ilipp": 1584, "▁bre": 1585, "▁fecit": 1586, "oph": 1587, "uv": 1588, "▁sap": 1589, "atorum": 1590, "▁sti": 1591, "och": 1592, "au": 1593, "iu": 1594, "▁indic": 1595, "▁aliis": 1596, "▁causam": 1597, "▁Aet": 1598, "▁perd": 1599, "lim": 1600, "usc": 1601, "▁dex": 1602, "▁hostem": 1603, "▁Afric": 1604, "ard": 1605, "▁Philipp": 1606, "▁adul": 1607, "issima": 1608, "▁sui": 1609, "entiae": 1610, "▁vix": 1611, "▁ipso": 1612, "ton": 1613, "▁constit": 1614, "▁usque": 1615, "▁grati": 1616, "▁illis": 1617, "no": 1618, "▁extr": 1619, "▁pen": 1620, "▁inp": 1621, "▁sor": 1622, "▁poster": 1623, "▁hor": 1624, "▁illo": 1625, "▁exemp": 1626, "▁prima": 1627, "▁perc": 1628, "▁habere": 1629, "▁terra": 1630, "▁libert": 1631, "▁relic": 1632, "▁crim": 1633, "iens": 1634, "▁senatum": 1635, "▁dil": 1636, "inibus": 1637, "▁manu": 1638, "lici": 1639, "ebantur": 1640, "esta": 1641, "▁diss": 1642, "▁Nam": 1643, "br": 1644, "▁ext": 1645, "terea": 1646, "ales": 1647, "tig": 1648, "▁dir": 1649, "▁aper": 1650, "▁exis": 1651, "▁triumph": 1652, "▁succ": 1653, "arem": 1654, "▁adeo": 1655, "▁postea": 1656, "lus": 1657, "▁consuli": 1658, "▁prec": 1659, "▁summa": 1660, "▁ostend": 1661, "▁scel": 1662, "vit": 1663, "▁sive": 1664, "ea": 1665, "▁popul": 1666, "▁ph": 1667, "▁publica": 1668, "idere": 1669, "▁rest": 1670, "▁Per": 1671, "▁ait": 1672, "enus": 1673, "▁not": 1674, "▁populo": 1675, "▁suam": 1676, "▁vobis": 1677, "ica": 1678, "▁suum": 1679, "▁fre": 1680, "▁patres": 1681, "▁serm": 1682, "atores": 1683, "▁pater": 1684, "▁nemo": 1685, "ationibus": 1686, "▁tac": 1687, "▁Romae": 1688, "▁decem": 1689, "nis": 1690, "▁sex": 1691, "icum": 1692, "▁venit": 1693, "▁Claud": 1694, "▁utr": 1695, "▁animos": 1696, "▁lud": 1697, "▁caput": 1698, "▁aeg": 1699, "▁grat": 1700, "▁rex": 1701, "▁\"": 1702, "les": 1703, "ist": 1704, "▁Pom": 1705, "▁suos": 1706, "urus": 1707, "▁dep": 1708, "▁multis": 1709, "▁genere": 1710, "▁equites": 1711, "ecit": 1712, "▁regem": 1713, "▁multo": 1714, "crip": 1715, "eh": 1716, "▁tunc": 1717, "ectum": 1718, "▁plebis": 1719, "▁orb": 1720, "▁tumul": 1721, "▁sese": 1722, "▁oppugn": 1723, "▁fortuna": 1724, "▁Macedon": 1725, "▁intelleg": 1726, "▁flum": 1727, "tia": 1728, "issa": 1729, "▁uno": 1730, "▁damn": 1731, "ach": 1732, "itt": 1733, "▁miser": 1734, "▁fore": 1735, "▁tel": 1736, "▁cura": 1737, "antis": 1738, "▁quaedam": 1739, "▁nomine": 1740, "▁offic": 1741, "▁Corn": 1742, "▁arbitr": 1743, "usque": 1744, "▁urbis": 1745, "▁fuerit": 1746, "▁fere": 1747, "nam": 1748, "▁frequ": 1749, "▁forte": 1750, "▁gem": 1751, "▁ide": 1752, "▁anti": 1753, "trum": 1754, "▁fuerat": 1755, "ron": 1756, "ides": 1757, "ines": 1758, "▁aug": 1759, "▁priv": 1760, "▁equitum": 1761, "▁test": 1762, "▁vuln": 1763, "▁iuv": 1764, "▁pertin": 1765, "etis": 1766, "▁huic": 1767, "ico": 1768, "▁ur": 1769, "▁certe": 1770, "▁Samn": 1771, "▁ista": 1772, "▁existim": 1773, "▁Romanos": 1774, "▁senatu": 1775, "eps": 1776, "tulit": 1777, "erre": 1778, "▁gaud": 1779, "▁procul": 1780, "▁Marc": 1781, "reh": 1782, "▁sin": 1783, "enum": 1784, "▁has": 1785, "'.": 1786, "▁fidem": 1787, "▁verum": 1788, "▁locis": 1789, "▁dilig": 1790, "▁quaer": 1791, "▁ol": 1792, "▁suae": 1793, "▁gest": 1794, "▁Num": 1795, "▁iniur": 1796, "▁inven": 1797, "▁relig": 1798, "▁accus": 1799, "▁Graeci": 1800, "▁respond": 1801, "▁licet": 1802, "lis": 1803, "iret": 1804, "▁cust": 1805, "▁nostra": 1806, "▁uic": 1807, "itae": 1808, "▁aqu": 1809, "▁Itali": 1810, "▁iussit": 1811, "estim": 1812, "▁legati": 1813, "la": 1814, "▁occup": 1815, "lam": 1816, "▁eg": 1817, "▁moen": 1818, "▁oport": 1819, "▁muli": 1820, "itium": 1821, "▁fit": 1822, "▁dicitur": 1823, "▁exper": 1824, "▁multi": 1825, "iat": 1826, "▁iuven": 1827, "▁Corneli": 1828, "▁famili": 1829, "st": 1830, "ilibus": 1831, "▁tab": 1832, "▁tut": 1833, "▁Gall": 1834, "eno": 1835, "▁praem": 1836, "ung": 1837, "▁mot": 1838, "▁adhuc": 1839, "▁tamquam": 1840, "▁imperium": 1841, "▁perp": 1842, "▁corpus": 1843, "yn": 1844, "▁reliqu": 1845, "▁ni": 1846, "▁mer": 1847, "▁Ad": 1848, "xit": 1849, "ulit": 1850, "▁medic": 1851, "if": 1852, "itam": 1853, "obus": 1854, "▁Nec": 1855, "▁hom": 1856, "endis": 1857, "▁Cam": 1858, "▁intra": 1859, "idis": 1860, "▁custod": 1861, "▁quamquam": 1862, "▁inm": 1863, "▁facile": 1864, "▁rad": 1865, "ulorum": 1866, "▁loqu": 1867, "▁quisque": 1868, "uerit": 1869, "▁Cn": 1870, "▁appar": 1871, "▁consulem": 1872, "▁tanta": 1873, "sis": 1874, "ario": 1875, "endit": 1876, "▁err": 1877, "ga": 1878, "▁quattu": 1879, "▁animum": 1880, "torum": 1881, "ectis": 1882, "inos": 1883, "▁aqua": 1884, "▁caes": 1885, "▁ard": 1886, "arb": 1887, "ies": 1888, "▁extra": 1889, "▁Romano": 1890, "▁effic": 1891, "arentur": 1892, "▁dicit": 1893, "▁colleg": 1894, "estr": 1895, "▁Quod": 1896, "▁corn": 1897, "',": 1898, "▁instit": 1899, "▁cog": 1900, "icis": 1901, "▁tandem": 1902, "▁Rh": 1903, "▁cetera": 1904, "▁ux": 1905, "▁prior": 1906, "▁conci": 1907, "▁desid": 1908, "▁fal": 1909, "▁deos": 1910, "▁ang": 1911, "loqu": 1912, "▁recep": 1913, "ni": 1914, "erim": 1915, "▁Pos": 1916, "▁Po": 1917, "▁Ac": 1918, "▁Tar": 1919, "vo": 1920, "▁De": 1921, "▁mater": 1922, "ice": 1923, "▁Ach": 1924, "▁magno": 1925, "▁mox": 1926, "▁quicquam": 1927, "yc": 1928, "asset": 1929, "ares": 1930, "ursus": 1931, "iniens": 1932, "so": 1933, "▁ratio": 1934, "▁cogit": 1935, "▁diffic": 1936, "▁publicae": 1937, "▁coh": 1938, "▁benefic": 1939, "▁hostis": 1940, "antia": 1941, "▁Romanus": 1942, "▁fem": 1943, "▁quattuor": 1944, "▁modum": 1945, "gressus": 1946, "▁Luc": 1947, "▁cad": 1948, "▁fama": 1949, "enae": 1950, "endae": 1951, "▁iter": 1952, "▁Ill": 1953, "▁omnem": 1954, "▁indign": 1955, "▁vim": 1956, "orm": 1957, "▁statu": 1958, "▁capti": 1959, "▁conl": 1960, "▁coep": 1961, "▁Antioch": 1962, "ulae": 1963, "▁conven": 1964, "enas": 1965, "▁Ath": 1966, "uerat": 1967, "▁sper": 1968, "▁eas": 1969, "ulas": 1970, "▁iug": 1971, "▁videtur": 1972, "▁legiones": 1973, "▁relin": 1974, "▁Iov": 1975, "▁desc": 1976, "▁ipsis": 1977, "▁parum": 1978, "iit": 1979, "ocr": 1980, "uet": 1981, "▁tota": 1982, "▁verba": 1983, "atium": 1984, "▁alios": 1985, "▁alio": 1986, "▁aciem": 1987, "▁seu": 1988, "par": 1989, "ecum": 1990, "▁cern": 1991, "▁iure": 1992, "▁regis": 1993, "▁praeb": 1994, "▁pond": 1995, "▁ultim": 1996, "elic": 1997, "onte": 1998, "tid": 1999, "entius": 2000, "▁firm": 2001, "▁spem": 2002, "▁Quinc": 2003, "▁nocte": 2004, "▁populum": 2005, "▁on": 2006, "issimus": 2007, "XX": 2008, "ule": 2009, "▁ger": 2010, "▁Romanum": 2011, "ress": 2012, "▁sacr": 2013, "yp": 2014, "na": 2015, "▁insign": 2016, "▁cib": 2017, "eant": 2018, ".'": 2019, "uers": 2020, "▁ful": 2021, "▁Pompe": 2022, "▁frig": 2023, "edere": 2024, "▁exig": 2025, "ima": 2026, "lid": 2027, "▁consilio": 2028, "▁Pl": 2029, "abatur": 2030, "▁pect": 2031, "inqu": 2032, "me": 2033, "▁pud": 2034, "▁omne": 2035, "▁pol": 2036, "utis": 2037, "ariis": 2038, "rup": 2039, "▁Val": 2040, "▁nego": 2041, "arr": 2042, "▁trep": 2043, "▁const": 2044, "ang": 2045, "tiens": 2046, "▁Etr": 2047, "emplo": 2048, "▁debet": 2049, "uam": 2050, "▁diff": 2051, "▁opin": 2052, "▁profectus": 2053, "alia": 2054, "▁alterum": 2055, "▁off": 2056, "enit": 2057, "▁frum": 2058, "▁Cum": 2059, "▁lap": 2060, "▁compl": 2061, "▁asper": 2062, "▁intr": 2063, "▁eis": 2064, "emque": 2065, "ump": 2066, "tore": 2067, "▁quando": 2068, "▁ratione": 2069, "▁le": 2070, "▁dict": 2071, "▁veh": 2072, "▁instr": 2073, "itudine": 2074, "▁umquam": 2075, "▁quinque": 2076, "licet": 2077, "ox": 2078, "▁facit": 2079, "▁extemplo": 2080, "▁consilium": 2081, "ille": 2082, "▁som": 2083, "itos": 2084, "▁camp": 2085, "rog": 2086, "▁inim": 2087, "▁usus": 2088, "ulam": 2089, "▁Er": 2090, "▁mari": 2091, "rob": 2092, "ortun": 2093, "▁obsid": 2094, "▁crud": 2095, "▁hosti": 2096, "▁Cr": 2097, "idus": 2098, "▁ampl": 2099, "abit": 2100, "▁annos": 2101, "▁postul": 2102, "▁clar": 2103, "erg": 2104, "▁vas": 2105, "▁domum": 2106, "cio": 2107, "libus": 2108, "▁itin": 2109, "▁can": 2110, "▁imperat": 2111, "▁spir": 2112, "▁trah": 2113, "▁barb": 2114, "avi": 2115, "▁th": 2116, "▁illam": 2117, "▁son": 2118, "▁subs": 2119, "atibus": 2120, "▁mand": 2121, "▁trac": 2122, "▁unus": 2123, "▁ceterum": 2124, "▁vocant": 2125, "▁fas": 2126, "▁sustin": 2127, "▁Ne": 2128, "▁caed": 2129, "endere": 2130, "▁Vol": 2131, "▁labor": 2132, "inti": 2133, "ona": 2134, "▁Ex": 2135, "▁uol": 2136, "▁acie": 2137, "▁postr": 2138, "▁volup": 2139, "▁fund": 2140, "aur": 2141, "eto": 2142, "ime": 2143, "▁imperio": 2144, "▁fab": 2145, "▁ceteris": 2146, "▁praef": 2147, "▁Carthaginiens": 2148, "anos": 2149, "▁dur": 2150, "entio": 2151, "▁Galli": 2152, "▁Par": 2153, "enn": 2154, "eta": 2155, "alibus": 2156, "▁vac": 2157, "▁legatos": 2158, "▁corporis": 2159, "incia": 2160, "fac": 2161, "yrann": 2162, "▁ic": 2163, "▁paulo": 2164, "▁vall": 2165, "▁sane": 2166, "▁deduc": 2167, "▁sapi": 2168, "▁vita": 2169, "▁Cic": 2170, "▁locus": 2171, "▁verbis": 2172, "▁ideo": 2173, "▁Lib": 2174, "▁praesidio": 2175, "▁amp": 2176, "ivers": 2177, "▁tyrann": 2178, "▁aest": 2179, "▁nullo": 2180, "▁ira": 2181, "▁consulibus": 2182, "▁decret": 2183, "▁prot": 2184, "▁multum": 2185, "▁male": 2186, "▁denique": 2187, "cum": 2188, "erius": 2189, "▁lacrim": 2190, "abantur": 2191, "▁Ag": 2192, "▁vers": 2193, "▁consili": 2194, "▁numero": 2195, "▁hosp": 2196, "▁altera": 2197, "ecto": 2198, "▁dictum": 2199, "ppe": 2200, "▁audi": 2201, "ce": 2202, "▁naves": 2203, "imo": 2204, "▁invid": 2205, "▁peditum": 2206, "isit": 2207, "▁secum": 2208, "ximus": 2209, "▁Caesar": 2210, "▁merit": 2211, "▁populus": 2212, "entos": 2213, "▁melius": 2214, "▁corpore": 2215, "andam": 2216, "▁divers": 2217, "▁extrem": 2218, "gredi": 2219, "▁ferre": 2220, "▁nem": 2221, "▁necesse": 2222, "▁Iun": 2223, "▁Romana": 2224, "▁fun": 2225, "▁prohib": 2226, "ones": 2227, "▁iubet": 2228, "▁interim": 2229, "▁sanc": 2230, "itudinem": 2231, "uxit": 2232, "▁subi": 2233, "antium": 2234, "▁?": 2235, "▁uid": 2236, "III": 2237, "▁carm": 2238, "▁pav": 2239, "▁ulla": 2240, "▁signific": 2241, "bo": 2242, "ellus": 2243, "▁tribuni": 2244, "osa": 2245, "▁suas": 2246, "▁donec": 2247, "▁partes": 2248, "orumque": 2249, "▁longe": 2250, "▁sax": 2251, "▁profic": 2252, "▁statim": 2253, "auc": 2254, "dr": 2255, "tare": 2256, "▁Tr": 2257, "ebit": 2258, "enam": 2259, "▁spe": 2260, "▁mare": 2261, "▁hominem": 2262, "atius": 2263, "▁proelio": 2264, "▁saep": 2265, "▁iterum": 2266, "▁sanguine": 2267, "ebus": 2268, "vum": 2269, "▁fra": 2270, "▁sump": 2271, "ota": 2272, "▁stip": 2273, "▁mille": 2274, "▁glad": 2275, "▁rursus": 2276, "▁repet": 2277, "▁undique": 2278, "iores": 2279, "▁generis": 2280, "▁quon": 2281, "▁vitae": 2282, "itates": 2283, "▁ferme": 2284, "▁univers": 2285, "aem": 2286, "issimi": 2287, "▁expl": 2288, "▁pere": 2289, "iem": 2290, "ond": 2291, "▁Alex": 2292, "▁ru": 2293, "atas": 2294, "eam": 2295, "▁ort": 2296, "ecim": 2297, "▁totum": 2298, "▁occas": 2299, "ustr": 2300, "▁aliter": 2301, "eras": 2302, "▁disp": 2303, "▁agrum": 2304, "▁recip": 2305, "▁nostri": 2306, "leg": 2307, "res": 2308, "igur": 2309, "▁Man": 2310, "▁litteris": 2311, "▁potuit": 2312, "▁sollic": 2313, "▁Syr": 2314, "ense": 2315, "▁meo": 2316, "▁pacem": 2317, "▁adulesc": 2318, "inas": 2319, "ulli": 2320, "▁Haec": 2321, "▁habent": 2322, "▁commod": 2323, "▁namque": 2324, "▁dicta": 2325, "▁lum": 2326, "ute": 2327, "▁filium": 2328, "▁hostibus": 2329, "▁ire": 2330, "▁bona": 2331, "uctus": 2332, "cus": 2333, "tell": 2334, "▁nox": 2335, "▁data": 2336, "▁Aeg": 2337, "▁suff": 2338, "▁reper": 2339, "bra": 2340, "▁Id": 2341, "▁nud": 2342, "▁orn": 2343, "arunt": 2344, "▁meum": 2345, "▁praefect": 2346, "eunt": 2347, "▁mund": 2348, "olum": 2349, "tior": 2350, "ilos": 2351, "▁vestr": 2352, "▁Anton": 2353, "▁Aug": 2354, "▁nun": 2355, "▁nostris": 2356, "itati": 2357, "▁corpora": 2358, "▁quaeque": 2359, "▁Rhod": 2360, "ver": 2361, "▁Cal": 2362, "▁medio": 2363, "abo": 2364, "▁compar": 2365, "escit": 2366, "▁habuit": 2367, "anae": 2368, "▁Romanorum": 2369, "▁rege": 2370, "▁interc": 2371, "▁possum": 2372, "rep": 2373, "▁oculis": 2374, "IC": 2375, "US": 2376, "iorem": 2377, "▁exter": 2378, "▁tris": 2379, "▁Alexand": 2380, "olis": 2381, "▁ora": 2382, "▁mortem": 2383, "▁sententia": 2384, "pici": 2385, "cumque": 2386, "▁duobus": 2387, "▁publicam": 2388, "estin": 2389, "▁lux": 2390, "▁toll": 2391, "uto": 2392, "▁ling": 2393, "▁discip": 2394, "▁alias": 2395, "▁vin": 2396, "▁ch": 2397, "▁moenia": 2398, "▁soli": 2399, "▁iuss": 2400, "▁aliqua": 2401, "▁Tib": 2402, "▁gratia": 2403, "▁nullum": 2404, "▁uen": 2405, "▁condic": 2406, "ER": 2407, "irent": 2408, "▁tanto": 2409, "▁secundum": 2410, "▁imperator": 2411, "issimo": 2412, "▁perven": 2413, "▁Italia": 2414, "▁deorum": 2415, "▁propos": 2416, "▁fuga": 2417, "acch": 2418, "▁provincia": 2419, "▁agros": 2420, "▁filius": 2421, "▁merc": 2422, "▁transf": 2423, "▁meli": 2424, "▁toto": 2425, "▁cec": 2426, "▁cand": 2427, "endos": 2428, "ibusque": 2429, "▁opera": 2430, "▁hort": 2431, "▁flamm": 2432, "▁matur": 2433, "▁societ": 2434, "lib": 2435, "▁possent": 2436, "▁relinqu": 2437, "greg": 2438, "▁au": 2439, "auit": 2440, "▁repente": 2441, "▁compos": 2442, "▁quamvis": 2443, "▁dei": 2444, "▁vari": 2445, "▁Apoll": 2446, "▁dare": 2447, "▁‘": 2448, "usti": 2449, "inius": 2450, "▁occul": 2451, "▁oculos": 2452, "▁praeterea": 2453, "▁deum": 2454, "▁ipsos": 2455, "▁quar": 2456, "▁adhib": 2457, "▁animus": 2458, "▁poterat": 2459, "▁domi": 2460, "▁tribus": 2461, "▁possunt": 2462, "▁obl": 2463, "alid": 2464, "▁senti": 2465, "▁fuisset": 2466, "endus": 2467, "icus": 2468, "▁fall": 2469, "▁cess": 2470, "▁tres": 2471, "urp": 2472, "▁homo": 2473, "▁spes": 2474, "▁spoli": 2475, "ebris": 2476, "▁brev": 2477, "tific": 2478, "▁bella": 2479, "▁illius": 2480, "sc": 2481, "▁obi": 2482, "▁more": 2483, "▁dictat": 2484, "▁diebus": 2485, "▁acies": 2486, "▁lege": 2487, "▁Hannibal": 2488, "▁dux": 2489, "▁viri": 2490, "▁pulch": 2491, "▁quippe": 2492, "issum": 2493, "▁Dem": 2494, "▁quinqu": 2495, "uros": 2496, "▁postero": 2497, "uae": 2498, "▁Scipio": 2499, "eph": 2500, "▁Hi": 2501, "ilosoph": 2502, "▁cit": 2503, "▁ipsius": 2504, "▁nasc": 2505, "▁oportet": 2506, "ensis": 2507, "▁cupid": 2508, "▁militibus": 2509, "▁primus": 2510, "▁integr": 2511, "▁inop": 2512, "escere": 2513, "▁nondum": 2514, "erd": 2515, "▁inl": 2516, "▁ultra": 2517, "▁occid": 2518, "tent": 2519, "▁fav": 2520, "estum": 2521, "aturum": 2522, "▁nit": 2523, "▁minis": 2524, "▁utrum": 2525, "▁incer": 2526, "▁praecep": 2527, "▁pedes": 2528, "▁claus": 2529, "▁Alb": 2530, "▁uoc": 2531, "▁paucis": 2532, "▁ore": 2533, "▁agit": 2534, "▁len": 2535, "▁pugna": 2536, "averunt": 2537, ".”": 2538, "▁puer": 2539, "▁vino": 2540, "▁plures": 2541, "uus": 2542, "▁har": 2543, "▁paene": 2544, "▁philosoph": 2545, "▁plebe": 2546, "▁Hoc": 2547, "aed": 2548, "ordia": 2549, "▁Phil": 2550, "▁fide": 2551, "▁foli": 2552, "▁antiqu": 2553, "▁partim": 2554, "▁veni": 2555, "▁quondam": 2556, "▁tempest": 2557, "▁inn": 2558, "▁Campan": 2559, "▁centum": 2560, "▁felic": 2561, "itiam": 2562, "▁virg": 2563, "▁fraud": 2564, "▁insid": 2565, "▁litteras": 2566, "▁agro": 2567, "▁Tro": 2568, "▁signum": 2569, "▁virtute": 2570, "▁Min": 2571, "▁bonum": 2572, "issimis": 2573, "▁salutem": 2574, "▁animis": 2575, "▁Italiam": 2576, "▁tuo": 2577, "▁oppidum": 2578, "▁Aem": 2579, "▁ren": 2580, "▁patrem": 2581, "▁tumultu": 2582, "▁mons": 2583, "▁argum": 2584, "pir": 2585, "▁supplic": 2586, "▁simil": 2587, "abilis": 2588, "estis": 2589, "▁consule": 2590, "▁lim": 2591, "▁quisquam": 2592, "item": 2593, "▁duas": 2594, "▁urbes": 2595, "▁patris": 2596, "▁genera": 2597, "▁ferro": 2598, "▁Fl": 2599, "▁nau": 2600, "▁nes": 2601, "acus": 2602, "equ": 2603, "▁loca": 2604, "▁morte": 2605, "yri": 2606, "ensa": 2607, "erus": 2608, "▁Ful": 2609, "▁recte": 2610, "erumque": 2611, "inceps": 2612, "aginta": 2613, "▁propri": 2614, "onia": 2615, "aribus": 2616, "▁terram": 2617, "▁tuis": 2618, "▁ist": 2619, "▁culp": 2620, "▁herb": 2621, "▁herc": 2622, "▁Capito": 2623, "▁nol": 2624, "ertur": 2625, "yg": 2626, "fici": 2627, "▁Qui": 2628, "▁dev": 2629, "andis": 2630, "▁Chris": 2631, "▁[": 2632, "itudo": 2633, "▁clad": 2634, "▁interdum": 2635, "▁protinus": 2636, "▁manibus": 2637, "idic": 2638, "▁bib": 2639, "▁ingens": 2640, "▁viol": 2641, "▁propr": 2642, "▁vehem": 2643, "▁ecc": 2644, "▁perpetu": 2645, "endas": 2646, "▁virum": 2647, "ath": 2648, "▁pace": 2649, "▁huc": 2650, "▁nef": 2651, "▁turba": 2652, "uen": 2653, "quir": 2654, "▁Quae": 2655, "▁dictator": 2656, "▁agmen": 2657, "▁occurr": 2658, "▁suspic": 2659, "▁praesidium": 2660, "itim": 2661, "abile": 2662, "▁patrum": 2663, "anorum": 2664, "▁dimic": 2665, "▁media": 2666, "▁agmine": 2667, "nus": 2668, "iper": 2669, "▁illos": 2670, "▁proelium": 2671, "▁effus": 2672, "▁K": 2673, "▁sumus": 2674, "▁Con": 2675, "▁Aene": 2676, "▁exspect": 2677, "arg": 2678, "eum": 2679, "iora": 2680, "▁cub": 2681, "▁copiis": 2682, "▁trepid": 2683, "turum": 2684, "▁retin": 2685, "▁caelo": 2686, "▁sociorum": 2687, "▁priusquam": 2688, "▁obsc": 2689, "▁rob": 2690, "▁hiem": 2691, "▁haberet": 2692, "▁legatis": 2693, "▁dici": 2694, "▁capta": 2695, "▁pron": 2696, "▁util": 2697, "▁duces": 2698, "elle": 2699, "▁uero": 2700, "▁centur": 2701, "▁utique": 2702, "▁navibus": 2703, "▁nub": 2704, "issis": 2705, "▁infl": 2706, "▁deser": 2707, "eas": 2708, "isso": 2709, "uram": 2710, "▁susc": 2711, "▁audac": 2712, "▁gloria": 2713, "▁videri": 2714, "▁pugnae": 2715, "acta": 2716, "▁defec": 2717, "ella": 2718, "▁grad": 2719, "▁fuerunt": 2720, "▁earum": 2721, "▁cru": 2722, "▁aff": 2723, "▁prud": 2724, "▁Di": 2725, "▁vitam": 2726, "▁anni": 2727, "▁potestate": 2728, "entu": 2729, "egit": 2730, "▁ori": 2731, "▁ced": 2732, "▁malum": 2733, "▁certamine": 2734, "▁facto": 2735, "duc": 2736, "▁regnum": 2737, "▁imperii": 2738, "▁viginti": 2739, "▁Hispania": 2740, "▁conspect": 2741, "▁pariter": 2742, "▁trig": 2743, "▁vere": 2744, "▁defend": 2745, "tionis": 2746, "arius": 2747, "itiis": 2748, "▁copias": 2749, "pere": 2750, "▁turp": 2751, "▁ci": 2752, "▁mali": 2753, "▁omnino": 2754, "▁suorum": 2755, "▁:": 2756, "▁quibusdam": 2757, "ommod": 2758, "▁horr": 2759, "▁iudices": 2760, "▁perv": 2761, "▁sociis": 2762, "▁†": 2763, "tiones": 2764, "▁dicam": 2765, "▁auxili": 2766, "▁postremo": 2767, "co": 2768, "ensi": 2769, "▁sis": 2770, "▁passim": 2771, "▁regi": 2772, "▁hod": 2773, "▁aliquando": 2774, "▁ben": 2775, "▁temporis": 2776, "▁eloqu": 2777, "▁pecunia": 2778, "ibern": 2779, "▁pror": 2780, "idae": 2781, "▁etsi": 2782, "▁scire": 2783, "▁annis": 2784, "▁expos": 2785, "▁ignor": 2786, "▁annum": 2787, "▁eri": 2788, "▁consulis": 2789, "▁misit": 2790, "▁leges": 2791, "cipi": 2792, "▁dein": 2793, "▁dissim": 2794, "▁praeda": 2795, "▁impl": 2796, "▁temper": 2797, "▁solet": 2798, "▁vires": 2799, "▁ingenti": 2800, "▁scilicet": 2801, "ulg": 2802, "uetud": 2803, "iusque": 2804, "▁obtin": 2805, "itione": 2806, "▁dubit": 2807, "▁rationem": 2808, "▁foret": 2809, "▁gratiam": 2810, "▁tran": 2811, "▁viribus": 2812, "▁contemp": 2813, "▁pacis": 2814, "teret": 2815, "▁coepit": 2816, "essum": 2817, "▁oratio": 2818, "▁divis": 2819, "▁aliquot": 2820, "▁nominis": 2821, "▁narr": 2822, "iderunt": 2823, "▁silv": 2824, "▁discrim": 2825, "▁mori": 2826, "▁Perse": 2827, "▁vera": 2828, "▁hoste": 2829, "▁futurum": 2830, "▁iudicium": 2831, "▁fus": 2832, "▁Serv": 2833, "ting": 2834, "▁datum": 2835, "▁auctoritate": 2836, "erae": 2837, "icae": 2838, "▁Pun": 2839, "▁minime": 2840, "▁sacerd": 2841, "▁dulc": 2842, "▁partibus": 2843, "▁praecipue": 2844, "▁Pal": 2845, "▁unius": 2846, "▁quidquid": 2847, "▁domus": 2848, "▁nobil": 2849, "▁conscrip": 2850, "ure": 2851, "▁revoc": 2852, "▁crudel": 2853, "onum": 2854, "▁mix": 2855, "▁aduers": 2856, "iturum": 2857, "▁sacri": 2858, "▁classem": 2859, "▁mi": 2860, "▁pollic": 2861, "ara": 2862, "▁obv": 2863, "▁foro": 2864, "▁meis": 2865, "itatum": 2866, "▁superb": 2867, "erri": 2868, "erique": 2869, "itor": 2870, "▁rup": 2871, "▁rel": 2872, "▁egreg": 2873, "▁hibern": 2874, "▁patribus": 2875, "averat": 2876, "ionum": 2877, "▁plurimum": 2878, "otis": 2879, "▁dixi": 2880, "▁tuae": 2881, "urs": 2882, "▁terrae": 2883, "hi": 2884, "▁mac": 2885, "nes": 2886, "▁pas": 2887, "▁eiusdem": 2888, "▁ros": 2889, "▁via": 2890, "▁Iuli": 2891, "▁dicunt": 2892, "▁ferunt": 2893, "yll": 2894, "▁nova": 2895, "▁multos": 2896, "▁tuum": 2897, "▁quaest": 2898, "abis": 2899, "undum": 2900, "▁mei": 2901, "itiae": 2902, "▁coniug": 2903, "▁provinciam": 2904, "▁ov": 2905, "▁ha": 2906, "▁comitia": 2907, "▁diximus": 2908, "umb": 2909, "▁Lic": 2910, "esset": 2911, "▁hominis": 2912, "▁aliquant": 2913, "ma": 2914, "▁Sab": 2915, "▁loci": 2916, "▁Itaque": 2917, "ices": 2918, "▁ratus": 2919, "▁filio": 2920, "▁Herc": 2921, "▁sola": 2922, "ult": 2923, "▁virtus": 2924, "▁prem": 2925, "▁ipsam": 2926, "▁subito": 2927, "▁Ut": 2928, "▁subl": 2929, "▁finem": 2930, "itionem": 2931, "▁pugnam": 2932, "▁Arg": 2933, "▁certamen": 2934, "▁diceret": 2935, "yd": 2936, "▁App": 2937, "▁tui": 2938, "este": 2939, "▁nup": 2940, "▁deus": 2941, "▁Thess": 2942, "▁memoria": 2943, "issem": 2944, "raque": 2945, "vere": 2946, "▁curr": 2947, "▁auspic": 2948, "▁auctores": 2949, "▁ster": 2950, "▁Caesaris": 2951, "▁Eum": 2952, "▁miles": 2953, "uissent": 2954, "▁praedic": 2955, "▁triginta": 2956, "▁antea": 2957, "pex": 2958, "plic": 2959, "▁ultro": 2960, "▁unam": 2961, "▁dup": 2962, "▁pecc": 2963, "▁posc": 2964, "▁celebr": 2965, "ith": 2966, "▁Tum": 2967, "▁Ven": 2968, "▁pre": 2969, "▁semel": 2970, "▁quodam": 2971, "▁periculo": 2972, "onium": 2973, "yth": 2974, "▁misc": 2975, "▁duos": 2976, "atorem": 2977, "EM": 2978, "▁domo": 2979, "▁Syracus": 2980, "),": 2981, "▁peti": 2982, "▁pluribus": 2983, "▁plura": 2984, "▁restit": 2985, "▁cognosc": 2986, "▁Fabius": 2987, "orta": 2988, "andae": 2989, "▁defens": 2990, "▁iact": 2991, "eu": 2992, "▁plurim": 2993, "▁Claudius": 2994, "▁Cornelius": 2995, "▁Has": 2996, "▁gentis": 2997, "idam": 2998, "▁Cat": 2999, "▁habebat": 3000, "▁vag": 3001, "▁Is": 3002, "▁sag": 3003, "▁purg": 3004, "▁rub": 3005, "▁ass": 3006, "▁teg": 3007, "▁fides": 3008, "▁hodie": 3009, "▁prou": 3010, "▁cuncta": 3011, "▁primis": 3012, "▁videretur": 3013, "elim": 3014, "▁alius": 3015, "▁animad": 3016, "▁feroc": 3017, "▁Lae": 3018, "▁impetu": 3019, "▁sententiam": 3020, "lem": 3021, "▁Augus": 3022, "▁capite": 3023, "▁maxima": 3024, "▁iudicio": 3025, "▁periculum": 3026, "▁atr": 3027, "▁socios": 3028, "▁duce": 3029, "▁iuris": 3030, "ellis": 3031, "▁expect": 3032, "▁consuetud": 3033, "uxta": 3034, "▁cerv": 3035, "anam": 3036, "▁dig": 3037, "▁tul": 3038, "▁Verg": 3039, "▁inst": 3040, "assent": 3041, "▁maiore": 3042, "▁met": 3043, "istis": 3044, "▁idque": 3045, "▁Semp": 3046, "essus": 3047, "une": 3048, "enos": 3049, "ecr": 3050, "ioni": 3051, "ittere": 3052, "▁pern": 3053, "▁vulg": 3054, "arii": 3055, "enses": 3056, "▁nomina": 3057, "▁paucos": 3058, "ustra": 3059, "▁inclin": 3060, "▁tela": 3061, "▁inu": 3062, "arios": 3063, "▁arte": 3064, "▁mala": 3065, "▁rip": 3066, "▁Magn": 3067, "lex": 3068, "▁magnum": 3069, "▁civitatis": 3070, "▁cli": 3071, "▁amplius": 3072, "▁sort": 3073, "entorum": 3074, "▁datur": 3075, "▁tempora": 3076, "▁principes": 3077, "amur": 3078, "elix": 3079, "undem": 3080, "▁incend": 3081, "▁depr": 3082, "▁Sicilia": 3083, "▁prol": 3084, "▁imped": 3085, "▁nostrum": 3086, "▁tempt": 3087, "▁delect": 3088, "▁agere": 3089, "ros": 3090, "▁imb": 3091, "inium": 3092, "▁milibus": 3093, "▁supplici": 3094, "▁Hannibalem": 3095, "▁Aegyp": 3096, "ioribus": 3097, "▁nullam": 3098, "▁speciem": 3099, "▁quanto": 3100, "▁stat": 3101, "▁tuam": 3102, "VS": 3103, "▁susp": 3104, "▁quadr": 3105, "▁medicam": 3106, "▁septem": 3107, "▁navig": 3108, "▁plerumque": 3109, "ept": 3110, "▁bis": 3111, "▁Laced": 3112, "▁impetr": 3113, "▁educ": 3114, "▁fugi": 3115, "▁abstin": 3116, "▁plebem": 3117, "▁potestatem": 3118, "▁Pa": 3119, "▁equitibus": 3120, "▁fat": 3121, "▁civium": 3122, "▁Lacedaem": 3123, "▁admir": 3124, "▁ducem": 3125, "▁vellet": 3126, "▁meae": 3127, "▁tulit": 3128, "▁Sicili": 3129, "▁aer": 3130, "▁uictor": 3131, "▁fuerant": 3132, "▁illic": 3133, "▁Postum": 3134, "▁cav": 3135, "▁absc": 3136, "▁quotiens": 3137, "▁singulis": 3138, "▁placuit": 3139, "ago": 3140, "ete": 3141, "▁aestim": 3142, "▁occis": 3143, "uris": 3144, "▁ulc": 3145, "▁meam": 3146, "▁summo": 3147, "bat": 3148, "▁vindic": 3149, "▁neminem": 3150, "▁quom": 3151, "▁iunc": 3152, "▁naturae": 3153, "▁nuper": 3154, "▁victoria": 3155, "▁Sul": 3156, "▁nostro": 3157, "yl": 3158, "▁tria": 3159, "▁aliquo": 3160, "▁pecuniam": 3161, "abitur": 3162, "▁Aetol": 3163, "▁utrumque": 3164, "uos": 3165, "▁Sex": 3166, "▁Tusc": 3167, "▁bonis": 3168, "▁iuxta": 3169, "▁regni": 3170, "▁edic": 3171, "▁stet": 3172, "▁cohort": 3173, "▁Fulv": 3174, "▁flag": 3175, "▁habeat": 3176, "▁Germ": 3177, "▁solis": 3178, "▁factus": 3179, "▁nut": 3180, "ensum": 3181, "▁alium": 3182, "▁duae": 3183, "▁iste": 3184, "▁vetus": 3185, "▁patriae": 3186, "▁Sempron": 3187, "▁constat": 3188, "▁trai": 3189, "▁mecum": 3190, "▁propinqu": 3191, "▁circums": 3192, "▁instruc": 3193, "lud": 3194, "drub": 3195, "▁quot": 3196, "▁missi": 3197, "▁petit": 3198, "▁ingr": 3199, "▁viro": 3200, "▁ub": 3201, "utem": 3202, "▁aliquis": 3203, "▁imag": 3204, "▁aeque": 3205, "▁sacrific": 3206, "ast": 3207, "gressi": 3208, "▁benign": 3209, "▁Cur": 3210, "▁fieret": 3211, "▁legem": 3212, "▁videatur": 3213, "▁Pers": 3214, "▁ordine": 3215, "▁viam": 3216, "▁consilia": 3217, ".—": 3218, "▁ui": 3219, "▁fati": 3220, "▁nimis": 3221, "▁opere": 3222, "arn": 3223, "▁Ter": 3224, "▁fata": 3225, "▁classis": 3226, "▁fortunae": 3227, "▁iud": 3228, "uls": 3229, "▁tribunos": 3230, "ebam": 3231, "▁totam": 3232, "▁caelum": 3233, "▁multitudo": 3234, "▁Quir": 3235, "▁inr": 3236, "▁Atque": 3237, "▁Hasdrub": 3238, "▁access": 3239, "▁desider": 3240, "▁Dec": 3241, "▁Eur": 3242, "▁Fur": 3243, "▁moll": 3244, "▁sicc": 3245, "▁coc": 3246, "▁tribunis": 3247, "abili": 3248, "▁velim": 3249, "▁medium": 3250, "▁eu": 3251, "uria": 3252, "▁ping": 3253, "▁Ser": 3254, "▁sacra": 3255, "ES": 3256, "idas": 3257, "▁uis": 3258, "▁coac": 3259, "▁luce": 3260, "▁vidit": 3261, "▁posuit": 3262, "▁saepius": 3263, "ras": 3264, "▁opes": 3265, "▁mans": 3266, "▁serp": 3267, "▁alterius": 3268, ".’": 3269, "▁Roma": 3270, "atura": 3271, "▁hominibus": 3272, "▁malis": 3273, "▁vestig": 3274, "▁equidem": 3275, "▁magistratus": 3276, "▁Bo": 3277, "inio": 3278, "rimque": 3279, "▁cotid": 3280, "▁accipi": 3281, "▁studio": 3282, "▁utraque": 3283, "▁legibus": 3284, "onio": 3285, "▁coniunc": 3286, "▁similis": 3287, "nae": 3288, "eperunt": 3289, "▁patria": 3290, "▁profecto": 3291, "tatem": 3292, "uerant": 3293, "▁legionibus": 3294, "▁dicendi": 3295, "imur": 3296, "▁sid": 3297, "▁voce": 3298, "iest": 3299, "▁Iam": 3300, "▁Pol": 3301, "▁trec": 3302, "▁stipend": 3303, "▁utrimque": 3304, "▁incid": 3305, "icam": 3306, "titia": 3307, "▁conp": 3308, "▁confirm": 3309, "andos": 3310, "▁ullo": 3311, "itatus": 3312, "▁cornu": 3313, "▁cunct": 3314, "▁adfect": 3315, "eus": 3316, "ciper": 3317, "▁pari": 3318, "▁longa": 3319, "▁qualis": 3320, "▁auxilium": 3321, "▁fugam": 3322, "▁video": 3323, "▁aetern": 3324, "▁missus": 3325, "▁facilius": 3326, "emor": 3327, "undi": 3328, "▁iun": 3329, "▁sinis": 3330, "▁soll": 3331, "▁placet": 3332, "▁manum": 3333, "▁Quam": 3334, "atoribus": 3335, "▁vestra": 3336, "▁Sp": 3337, "▁Tarqu": 3338, "▁cant": 3339, "▁expugn": 3340, "▁Om": 3341, "▁maiest": 3342, "▁Quinctius": 3343, "▁Sard": 3344, "▁copia": 3345, "▁interp": 3346, "▁Pis": 3347, "▁segn": 3348, "ho": 3349, "sequi": 3350, "▁dolor": 3351, "▁excus": 3352, "▁explor": 3353, "▁urg": 3354, "▁motus": 3355, "▁Ti": 3356, "▁morb": 3357, "erebat": 3358, "enes": 3359, "tiis": 3360, "tinc": 3361, "▁ioc": 3362, "▁octo": 3363, "▁reges": 3364, "▁tergo": 3365, "▁saec": 3366, "agr": 3367, "▁facti": 3368, "▁frustra": 3369, "odum": 3370, "▁aeris": 3371, "▁flumen": 3372, "▁opportun": 3373, "▁frug": 3374, "▁quing": 3375, "▁prodig": 3376, "▁excep": 3377, ").": 3378, "▁Or": 3379, "▁agri": 3380, "▁capi": 3381, "asci": 3382, "▁Met": 3383, "▁decern": 3384, "▁impos": 3385, "▁insequ": 3386, "▁fortunam": 3387, "▁nil": 3388, "▁intus": 3389, "▁dextra": 3390, "▁membra": 3391, "▁Hic": 3392, "▁nulli": 3393, "itatibus": 3394, "▁libertatem": 3395, "arus": 3396, "▁altero": 3397, "▁explic": 3398, "▁contend": 3399, "▁memin": 3400, "▁nescio": 3401, "odo": 3402, "aculum": 3403, "▁Cicero": 3404, "▁operam": 3405, "▁patriam": 3406, "vir": 3407, "yph": 3408, "▁bl": 3409, "▁iuc": 3410, "▁interrog": 3411, "ors": 3412, "▁tol": 3413, "▁Iovis": 3414, "▁inquam": 3415, "ittit": 3416, "▁piet": 3417, "▁impetum": 3418, "ensu": 3419, "▁gesta": 3420, "▁causae": 3421, "▁tertium": 3422, "▁cael": 3423, "▁nostrae": 3424, "▁veteres": 3425, "yrr": 3426, "taque": 3427, "▁ordinem": 3428, "▁gess": 3429, "▁decre": 3430, "▁temporibus": 3431, "olv": 3432, "tica": 3433, "▁fiat": 3434, "▁exped": 3435, "▁auxilia": 3436, "▁quarum": 3437, "otum": 3438, "▁maiores": 3439, "▁casus": 3440, "▁incip": 3441, "▁solus": 3442, "▁partis": 3443, "upp": 3444, "▁tard": 3445, "▁calid": 3446, "▁civitates": 3447, "▁Cons": 3448, "▁patre": 3449, "▁sponte": 3450, "▁agn": 3451, "▁comme": 3452, "▁horum": 3453, "▁bel": 3454, "inorum": 3455, "▁Cel": 3456, "▁pauper": 3457, "▁signis": 3458, "▁Africa": 3459, "▁exercit": 3460, "ationi": 3461, "▁libid": 3462, "▁purp": 3463, "▁Achae": 3464, "angu": 3465, "▁Quo": 3466, "▁fecisse": 3467, "LI": 3468, "▁olim": 3469, "▁interf": 3470, "abus": 3471, "▁vex": 3472, "tores": 3473, "▁caeli": 3474, "▁natus": 3475, "▁Italiae": 3476, "▁faciunt": 3477, "▁numerum": 3478, "istul": 3479, "▁visum": 3480, "avere": 3481, "ensus": 3482, "▁peregr": 3483, "▁palam": 3484, "▁intu": 3485, "▁caede": 3486, "▁Sulpic": 3487, "▁concili": 3488, "▁proficisc": 3489, "▁adiuv": 3490, "▁alb": 3491, "▁valet": 3492, "▁contum": 3493, "nia": 3494, "vus": 3495, "▁incr": 3496, "▁sequitur": 3497, "modum": 3498, "▁faceret": 3499, "averit": 3500, "icos": 3501, "▁Z": 3502, "▁cong": 3503, "▁classe": 3504, "▁auro": 3505, "▁consc": 3506, "▁ostendit": 3507, "▁Pho": 3508, "▁aetate": 3509, "▁possint": 3510, "▁Cas": 3511, "▁cat": 3512, "tionibus": 3513, "▁modi": 3514, "▁aetas": 3515, "▁temere": 3516, "▁naturam": 3517, "▁pronunti": 3518, "roque": 3519, "▁arcem": 3520, "▁aliquam": 3521, "erti": 3522, "rach": 3523, "▁demum": 3524, "TI": 3525, "atui": 3526, "onibus": 3527, "▁St": 3528, "▁cense": 3529, "▁erunt": 3530, "▁viros": 3531, "eruntur": 3532, "▁quanta": 3533, "▁scrips": 3534, "▁usu": 3535, "▁Aris": 3536, "▁sord": 3537, "▁Africam": 3538, "▁oratione": 3539, "▁observ": 3540, "▁magistratu": 3541, "▁mortis": 3542, "▁infest": 3543, "▁tribunus": 3544, "▁gra": 3545, "▁induc": 3546, "▁metus": 3547, "▁honore": 3548, "iumque": 3549, "▁valid": 3550, "aro": 3551, "▁abi": 3552, "▁gentes": 3553, "▁aedific": 3554, "▁Oc": 3555, "▁dari": 3556, "mis": 3557, "▁colon": 3558, "▁x": 3559, "▁Ab": 3560, "onius": 3561, "▁duod": 3562, "▁debere": 3563, "▁quicquid": 3564, "ebo": 3565, "▁dico": 3566, "▁admon": 3567, "▁terga": 3568, "▁infirm": 3569, "▁aquam": 3570, "▁ram": 3571, "▁conviv": 3572, "itata": 3573, "▁remed": 3574, "▁videbatur": 3575, "usa": 3576, "▁paul": 3577, "▁inh": 3578, "ariam": 3579, "▁stup": 3580, "▁tend": 3581, "▁oppress": 3582, "▁Her": 3583, "andus": 3584, "▁tract": 3585, "▁fecerunt": 3586, "▁cep": 3587, "ertit": 3588, "▁Cass": 3589, "▁summum": 3590, "11": 3591, "▁summam": 3592, "▁fuere": 3593, "▁tertio": 3594, "quaquam": 3595, "▁argenti": 3596, "▁liberos": 3597, "▁coron": 3598, "▁consulto": 3599, "▁The": 3600, "▁restitu": 3601, "aci": 3602, "▁solo": 3603, "escunt": 3604, "rehend": 3605, "▁pic": 3606, "▁lun": 3607, "▁interv": 3608, "▁Scr": 3609, "eratur": 3610, "▁quosdam": 3611, "RI": 3612, "▁noctem": 3613, "▁tenuit": 3614, "▁credo": 3615, "NI": 3616, "lla": 3617, "emur": 3618, "▁iung": 3619, "entior": 3620, "▁improb": 3621, "▁noctur": 3622, "▁dicuntur": 3623, "▁obli": 3624, "▁eundem": 3625, "▁bal": 3626, "▁exim": 3627, "▁imit": 3628, "▁umbr": 3629, "▁clamore": 3630, "udit": 3631, "alium": 3632, "▁muros": 3633, "▁venerunt": 3634, "▁boni": 3635, "▁amore": 3636, "▁honest": 3637, "▁Crass": 3638, "▁quare": 3639, "▁frater": 3640, "▁pectore": 3641, "▁meus": 3642, "▁mora": 3643, "▁pert": 3644, "▁acerb": 3645, "▁negleg": 3646, "uat": 3647, "▁inferi": 3648, "▁perfect": 3649, "▁Im": 3650, "▁pisc": 3651, "▁alibi": 3652, "▁cursu": 3653, "gere": 3654, "issimos": 3655, "▁causas": 3656, "▁her": 3657, "▁ambi": 3658, "▁totius": 3659, "▁ingenio": 3660, "▁fulm": 3661, "▁talis": 3662, "▁viris": 3663, "arumque": 3664, "▁exh": 3665, "▁sur": 3666, "▁calc": 3667, "▁visa": 3668, "▁augur": 3669, "▁dicimus": 3670, "efac": 3671, "tice": 3672, "▁malo": 3673, "ensium": 3674, "tura": 3675, "ellae": 3676, "▁scio": 3677, "▁nequi": 3678, "▁duabus": 3679, "▁mentem": 3680, "▁interfect": 3681, "ello": 3682, "▁Men": 3683, "nem": 3684, "erata": 3685, "▁fruc": 3686, "▁stul": 3687, "▁Inter": 3688, "▁forum": 3689, "alc": 3690, "▁rig": 3691, "ellum": 3692, "▁accepit": 3693, "ila": 3694, "▁mors": 3695, "▁plebi": 3696, "▁commend": 3697, "▁incolum": 3698, "▁XX": 3699, "▁mom": 3700, "▁eleph": 3701, "▁magni": 3702, "▁nigr": 3703, "▁agris": 3704, "▁human": 3705, "▁tecum": 3706, "▁civitate": 3707, "▁decus": 3708, "▁uter": 3709, "▁consci": 3710, "▁priore": 3711, "nas": 3712, "▁excit": 3713, "▁eandem": 3714, "▁civitas": 3715, "ecund": 3716, "▁fing": 3717, "▁aliam": 3718, "▁percus": 3719, "▁quadrag": 3720, "ania": 3721, "▁pend": 3722, "▁iniqu": 3723, "▁magnis": 3724, "▁civitatem": 3725, "▁Macedoniam": 3726, "▁1": 3727, "▁cuique": 3728, "▁nimium": 3729, "▁Ind": 3730, "yb": 3731, "ind": 3732, "▁eques": 3733, "▁integ": 3734, "▁melle": 3735, "▁Gracch": 3736, "▁causis": 3737, "▁materia": 3738, "▁aquae": 3739, "▁certa": 3740, "▁parti": 3741, "▁magnam": 3742, "▁quemquam": 3743, "rix": 3744, "▁be": 3745, "▁Aur": 3746, "▁urbs": 3747, "▁fauc": 3748, "▁mall": 3749, "▁ciuit": 3750, "admodum": 3751, "▁refert": 3752, "▁itinere": 3753, "▁pontific": 3754, "omach": 3755, "▁frem": 3756, "uas": 3757, "▁Mas": 3758, "▁figur": 3759, "▁subsid": 3760, "▁videre": 3761, "▁aceto": 3762, "▁longius": 3763, "▁gentium": 3764, "▁dolore": 3765, "▁senatui": 3766, "▁Flac": 3767, "▁nerv": 3768, "▁crimen": 3769, "▁liberis": 3770, "▁adduc": 3771, "▁Mil": 3772, "▁amor": 3773, "▁forma": 3774, "▁species": 3775, "▁Neque": 3776, "▁concess": 3777, "turus": 3778, "▁pernici": 3779, "onstr": 3780, "▁accid": 3781, "▁immin": 3782, "▁maiorem": 3783, "▁Sal": 3784, "▁posita": 3785, "▁pervenit": 3786, "▁rus": 3787, "▁recus": 3788, "▁sententi": 3789, "ERO": 3790, "igr": 3791, "acum": 3792, "▁acta": 3793, "▁cepit": 3794, "▁mores": 3795, "▁curam": 3796, "▁pedibus": 3797, "▁multitudinem": 3798, "ola": 3799, "▁corrup": 3800, "▁sud": 3801, "▁iura": 3802, "eperat": 3803, "ules": 3804, "▁quadam": 3805, "ertim": 3806, "aliter": 3807, "▁crass": 3808, "▁spatio": 3809, "▁fratrem": 3810, "anes": 3811, "▁ferv": 3812, "▁maius": 3813, "▁paenit": 3814, "▁nota": 3815, "▁singulorum": 3816, "diu": 3817, "▁decoc": 3818, "▁Atheni": 3819, "▁suffrag": 3820, "ade": 3821, "▁fron": 3822, "▁Cicer": 3823, "▁finis": 3824, "▁circumd": 3825, "▁pom": 3826, "uitur": 3827, "▁torm": 3828, "▁dictatorem": 3829, "inia": 3830, "▁innoc": 3831, "▁secret": 3832, "▁singulos": 3833, "▁Pap": 3834, "▁iuvent": 3835, "▁orator": 3836, "tal": 3837, "▁mitt": 3838, "▁Aetoli": 3839, "▁Philippo": 3840, "ebis": 3841, "acis": 3842, "oqui": 3843, "erimus": 3844, "▁possess": 3845, "▁mente": 3846, "▁singul": 3847, "▁praepar": 3848, "▁Valerius": 3849, "▁cin": 3850, "▁usum": 3851, "▁fines": 3852, "uppiter": 3853, "▁publico": 3854, "▁terrarum": 3855, "▁voluntate": 3856, "▁Latini": 3857, "▁comper": 3858, "▁portas": 3859, "▁altitud": 3860, "▁fuerint": 3861, "▁spatium": 3862, "▁contione": 3863, "abilem": 3864, "▁rediit": 3865, "▁consulum": 3866, "▁litterae": 3867, "▁adven": 3868, "▁menti": 3869, "▁capita": 3870, "▁ceteri": 3871, "▁Romanae": 3872, "▁Ligur": 3873, "▁adulter": 3874, "▁Ol": 3875, "acula": 3876, "▁minor": 3877, "▁reduc": 3878, "▁tecta": 3879, "▁princeps": 3880, "▁saev": 3881, "▁venire": 3882, "▁novi": 3883, "▁tanti": 3884, "▁iniuria": 3885, "▁potes": 3886, "▁dignum": 3887, "▁fortasse": 3888, "▁lex": 3889, "atumque": 3890, "itios": 3891, "▁Quis": 3892, "▁Christi": 3893, "▁CIC": 3894, "▁CICERO": 3895, "▁volo": 3896, "▁manif": 3897, "▁solv": 3898, "▁stir": 3899, "▁regno": 3900, "▁creati": 3901, "▁disput": 3902, "▁castell": 3903, "▁fig": 3904, "▁castr": 3905, "▁collig": 3906, "▁Nunc": 3907, "▁exor": 3908, "terent": 3909, "▁equo": 3910, "▁velle": 3911, "▁paulum": 3912, "tib": 3913, "issimae": 3914, "tol": 3915, "▁ec": 3916, "▁fess": 3917, "▁7": 3918, "aen": 3919, "euc": 3920, "▁inpos": 3921, "▁impetus": 3922, "▁success": 3923, "▁Epic": 3924, "▁detra": 3925, "▁Etrusc": 3926, "▁suscep": 3927, "▁ducibus": 3928, "▁Alp": 3929, "▁vox": 3930, "▁terras": 3931, "▁exemplum": 3932, "▁sequi": 3933, "▁velit": 3934, "▁gravis": 3935, "oss": 3936, "▁Siciliam": 3937, "EN": 3938, "uisti": 3939, "▁dest": 3940, "ede": 3941, "▁sat": 3942, "aculo": 3943, "▁puto": 3944, "▁haberent": 3945, "▁II": 3946, "▁vad": 3947, "▁gloriam": 3948, "▁honorem": 3949, "lix": 3950, "unda": 3951, "iarum": 3952, "▁Quin": 3953, "ituros": 3954, "ymph": 3955, "tisque": 3956, "▁*": 3957, "▁eaque": 3958, "▁ignis": 3959, "▁suffic": 3960, "▁rh": 3961, "▁uerb": 3962, "▁calam": 3963, "▁tertia": 3964, "uerint": 3965, "▁amicitiam": 3966, "▁clamor": 3967, "▁prosper": 3968, "▁Pro": 3969, "▁opt": 3970, "issimam": 3971, "▁militem": 3972, "▁principio": 3973, "▁Macedonum": 3974, "erare": 3975, "▁aurum": 3976, "▁fatig": 3977, "▁maris": 3978, "▁orbem": 3979, "▁putant": 3980, "▁diutius": 3981, "icem": 3982, "tex": 3983, "enim": 3984, "▁urbi": 3985, "▁aetatis": 3986, "▁venisse": 3987, "unx": 3988, "▁uul": 3989, "▁destin": 3990, "▁praetore": 3991, "▁auf": 3992, "iduum": 3993, "▁ambo": 3994, "aturus": 3995, "▁petere": 3996, "▁maioribus": 3997, "etae": 3998, "▁equis": 3999, "nos": 4000, "▁Reg": 4001, "▁Thrac": 4002, "▁consid": 4003, "▁merito": 4004, "▁effug": 4005, "▁contem": 4006, "▁plerique": 4007, "ariae": 4008, "▁ii": 4009, "▁Hipp": 4010, "▁terris": 4011, "mo": 4012, "▁Pel": 4013, "▁dat": 4014, "▁fon": 4015, "▁spar": 4016, "▁nequiquam": 4017, "▁cam": 4018, "▁uxorem": 4019, "▁praedam": 4020, "▁templum": 4021, "▁Ep": 4022, "▁seque": 4023, "▁dispos": 4024, "▁Iuppiter": 4025, "▁appellant": 4026, "▁casu": 4027, "▁vest": 4028, "▁aliae": 4029, "▁vitium": 4030, "▁Brut": 4031, "icere": 4032, "▁nonn": 4033, "▁oleo": 4034, "▁tali": 4035, "▁foedus": 4036, "oti": 4037, "tav": 4038, "▁equos": 4039, "▁vitia": 4040, "▁mittit": 4041, "▁admodum": 4042, "▁multitudine": 4043, "▁Ae": 4044, "cium": 4045, "▁domos": 4046, "▁sanguis": 4047, "▁Philippus": 4048, "▁concurr": 4049, "▁proxima": 4050, "ivit": 4051, "orte": 4052, "actum": 4053, "▁opem": 4054, "▁Maxim": 4055, "▁oppida": 4056, "▁Caesarem": 4057, "aut": 4058, "▁gens": 4059, "▁coniur": 4060, "▁faciam": 4061, "▁conspectu": 4062, "idie": 4063, "otus": 4064, "▁toti": 4065, "▁solent": 4066, "▁demonstr": 4067, "▁Lyc": 4068, "▁fic": 4069, "aturos": 4070, "▁reliqua": 4071, "▁videntur": 4072, "arm": 4073, "oto": 4074, "ulla": 4075, "▁Pat": 4076, "▁contenti": 4077, "▁scriptum": 4078, "nox": 4079, "inth": 4080, "▁Mess": 4081, "▁habit": 4082, "▁convenit": 4083, "▁<": 4084, "▁Est": 4085, "▁deo": 4086, "▁regum": 4087, "lar": 4088, "▁spl": 4089, "▁poterant": 4090, "▁intervall": 4091, "▁dist": 4092, "▁ferrum": 4093, "▁versus": 4094, "▁regia": 4095, "▁histor": 4096, "▁praesertim": 4097, "▁cic": 4098, "▁Marcellus": 4099, "erio": 4100, "▁tun": 4101, "▁lign": 4102, "▁quer": 4103, "eremus": 4104, "▁sensus": 4105, "▁vivere": 4106, "▁profecti": 4107, "omen": 4108, "▁reb": 4109, "▁flor": 4110, "▁homini": 4111, "▁é": 4112, "▁ere": 4113, "▁habeo": 4114, "▁inerm": 4115, "▁moribus": 4116, "▁inpr": 4117, "▁late": 4118, "▁vend": 4119, "▁temer": 4120, "▁futura": 4121, "▁operis": 4122, "▁diei": 4123, "▁fulg": 4124, "▁publice": 4125, "▁quinquaginta": 4126, "▁Sag": 4127, "▁adl": 4128, "▁palm": 4129, "▁utriusque": 4130, "▁trem": 4131, "CC": 4132, "▁sole": 4133, "▁persu": 4134, "asti": 4135, "▁even": 4136, "▁volum": 4137, "▁praeterquam": 4138, "arc": 4139, "▁impr": 4140, "▁parv": 4141, "▁aequo": 4142, "▁dubium": 4143, "▁simile": 4144, "VI": 4145, "▁lus": 4146, "▁tit": 4147, "▁iussi": 4148, "▁lingua": 4149, "▁proelia": 4150, "▁aduersus": 4151, "ef": 4152, "▁obr": 4153, "▁rot": 4154, "▁rud": 4155, "▁parc": 4156, "▁morbo": 4157, "erebant": 4158, "▁iamque": 4159, "▁noster": 4160, "▁patern": 4161, "▁contumeli": 4162, "▁adp": 4163, "▁Hor": 4164, "▁specie": 4165, "plex": 4166, "istere": 4167, "▁eosdem": 4168, "▁industr": 4169, "▁nihilo": 4170, "▁Lab": 4171, "▁Masin": 4172, "▁fugit": 4173, "▁supers": 4174, "▁capitis": 4175, "▁honores": 4176, "▁Lacedaemon": 4177, "▁hercle": 4178, "▁venisset": 4179, "▁Dom": 4180, "itatu": 4181, "▁immo": 4182, "▁aegre": 4183, "▁exemplo": 4184, "▁praetores": 4185, "▁orig": 4186, "▁latus": 4187, "▁alto": 4188, "▁eoque": 4189, "▁virtutis": 4190, "▁responsum": 4191, "ixit": 4192, "idisse": 4193, "▁dolorem": 4194, "▁suad": 4195, "▁quemadmodum": 4196, "gred": 4197, "▁pax": 4198, "▁truc": 4199, "non": 4200, "rump": 4201, "▁fluv": 4202, "▁sermone": 4203, "▁vent": 4204, "▁aures": 4205, "▁nostros": 4206, "\".": 4207, "urae": 4208, "▁ager": 4209, "▁flex": 4210, "▁virtutem": 4211, "etas": 4212, "▁montes": 4213, "▁lax": 4214, "▁famam": 4215, "itudinis": 4216, "undis": 4217, "▁greg": 4218, "▁conced": 4219, "▁cuiusque": 4220, "▁Prae": 4221, "ovit": 4222, "▁sanguinis": 4223, "ticum": 4224, "▁regna": 4225, "▁praesens": 4226, "▁Hispaniam": 4227, "tric": 4228, "▁Hom": 4229, "▁Med": 4230, "▁all": 4231, "▁circumf": 4232, "▁Romanam": 4233, "▁ciu": 4234, "ectam": 4235, "▁pauci": 4236, "▁imperatorem": 4237, "PH": 4238, "▁vill": 4239, "▁advoc": 4240, "▁fertur": 4241, "tri": 4242, "▁Ergo": 4243, "▁labore": 4244, "▁nullus": 4245, "▁conscripti": 4246, "ubern": 4247, "▁erum": 4248, "▁ungu": 4249, "▁nefas": 4250, "▁facies": 4251, "▁optime": 4252, "▁sanguinem": 4253, "anim": 4254, "▁vallum": 4255, "▁ceteros": 4256, "▁orationis": 4257, "▁ignomin": 4258, "▁depos": 4259, "▁magnitudine": 4260, "▁ducis": 4261, "▁honor": 4262, "▁publicum": 4263, "▁orationem": 4264, "▁medi": 4265, "▁oris": 4266, "inistr": 4267, "▁mentis": 4268, "eae": 4269, "evit": 4270, "▁claud": 4271, "▁certum": 4272, "▁tenu": 4273, "▁expedit": 4274, "▁ideoque": 4275, "▁victoriam": 4276, "▁Ip": 4277, "itias": 4278, "▁desper": 4279, "▁reu": 4280, "▁hered": 4281, "▁foedere": 4282, "▁moenibus": 4283, "▁aliquanto": 4284, "▁carc": 4285, "▁Parth": 4286, "▁Volsc": 4287, "▁promp": 4288, "▁portam": 4289, "▁facinus": 4290, "estus": 4291, "ataque": 4292, "▁festin": 4293, "▁secunda": 4294, "▁Gallorum": 4295, "▁pecuniae": 4296, "▁consiliis": 4297, "▁pel": 4298, "▁aere": 4299, "▁fluc": 4300, "antiam": 4301, "▁ducere": 4302, "ebas": 4303, "yrrh": 4304, "▁Alc": 4305, "iebat": 4306, "quidem": 4307, "▁liceat": 4308, "▁libertatis": 4309, "▁cibo": 4310, "▁frag": 4311, "▁inius": 4312, "ectu": 4313, "▁Tur": 4314, "▁scelus": 4315, "▁quemque": 4316, "▁potuisse": 4317, "▁spiritus": 4318, "idium": 4319, "erentes": 4320, "▁alteram": 4321, "#11": 4322, "▁absol": 4323, "▁pesti": 4324, "▁adfirm": 4325, "▁splend": 4326, "▁sta": 4327, "▁Gallic": 4328, "▁acr": 4329, "▁rum": 4330, "ticis": 4331, "▁vocem": 4332, "▁inclus": 4333, "▁iussus": 4334, "lu": 4335, "issi": 4336, "▁mus": 4337, "actis": 4338, "erium": 4339, "▁agi": 4340, "▁diut": 4341, "▁libera": 4342, "▁disciplin": 4343, "erret": 4344, "iscop": 4345, "▁Antiocho": 4346, "alam": 4347, "lina": 4348, "ullius": 4349, "▁fiunt": 4350, "▁plane": 4351, "▁redit": 4352, "▁refer": 4353, "▁Philippum": 4354, "ymp": 4355, "▁Ner": 4356, "eperit": 4357, "▁conloc": 4358, "▁Samnitium": 4359, "arch": 4360, "▁Asia": 4361, "▁creb": 4362, "▁facul": 4363, "▁portis": 4364, "▁inflamm": 4365, "eis": 4366, "eth": 4367, "▁epist": 4368, "▁interpret": 4369, "udum": 4370, "isses": 4371, "libet": 4372, "▁detrac": 4373, "▁Lys": 4374, "▁Pon": 4375, "ectae": 4376, "▁vinum": 4377, "▁angusti": 4378, "uimus": 4379, "▁loqui": 4380, "▁liceret": 4381, "▁simulac": 4382, "▁beneficium": 4383, "▁fum": 4384, "▁abdic": 4385, "▁regio": 4386, "▁poti": 4387, "▁abund": 4388, "▁Manlius": 4389, "▁lup": 4390, "▁miseric": 4391, "▁utroque": 4392, "▁possumus": 4393, "▁provincias": 4394, "▁noctis": 4395, "▁sollem": 4396, "▁credere": 4397, "▁numerus": 4398, "▁memoriam": 4399, "▁#11": 4400, "▁ador": 4401, "▁libro": 4402, "▁consum": 4403, "▁optimum": 4404, "▁peri": 4405, "▁homine": 4406, "▁epistul": 4407, "▁commemor": 4408, "▁Ca": 4409, "▁tradunt": 4410, "▁verborum": 4411, "▁nep": 4412, "▁duci": 4413, "▁odio": 4414, "▁monum": 4415, "▁gloriae": 4416, "▁Scipionem": 4417, "▁iuu": 4418, "▁redi": 4419, "▁saxa": 4420, "▁tuos": 4421, "▁oppido": 4422, "▁magister": 4423, "uf": 4424, "toll": 4425, "▁actum": 4426, "erisque": 4427, "▁matris": 4428, "▁descend": 4429, "▁pectora": 4430, "▁paulatim": 4431, "▁ventum": 4432, "▁cotidie": 4433, "▁uet": 4434, "atque": 4435, "▁dato": 4436, "▁secuti": 4437, "▁volupt": 4438, "▁Lent": 4439, "▁caec": 4440, "▁metum": 4441, "▁vellent": 4442, "ucia": 4443, "▁pasc": 4444, "▁lucem": 4445, "▁parva": 4446, "▁dixisse": 4447, "▁erga": 4448, "▁intro": 4449, "▁ingenium": 4450, "▁potestas": 4451, "▁praesidia": 4452, "▁provinciae": 4453, "acia": 4454, "idos": 4455, "urrit": 4456, "▁plag": 4457, "isa": 4458, "olae": 4459, "▁Amph": 4460, "inarum": 4461, "▁dextr": 4462, "▁oppid": 4463, "itiorum": 4464, "▁alteri": 4465, "▁navium": 4466, "▁ostent": 4467, "▁populos": 4468, "▁referre": 4469, "▁sedit": 4470, "▁ubique": 4471, "utae": 4472, "▁flu": 4473, "▁niv": 4474, "▁aeth": 4475, "amento": 4476, "▁domes": 4477, "▁molli": 4478, "▁vocatur": 4479, "▁quadraginta": 4480, "▁aegr": 4481, "▁cives": 4482, "▁idone": 4483, "▁primi": 4484, "▁aliquem": 4485, "TA": 4486, "▁Pae": 4487, "▁tal": 4488, "▁tenet": 4489, "▁principum": 4490, "icit": 4491, "otes": 4492, "unde": 4493, "▁Post": 4494, "atoris": 4495, "▁fratris": 4496, "▁magnific": 4497, "erere": 4498, "▁litora": 4499, "undo": 4500, "▁sati": 4501, "▁ullum": 4502, "▁praedae": 4503, "▁El": 4504, "▁ordo": 4505, "▁recens": 4506, "sae": 4507, "▁Cann": 4508, "▁tuus": 4509, "▁amnis": 4510, "▁poena": 4511, "▁frumentum": 4512, "errim": 4513, "erantur": 4514, "▁Capuam": 4515, "▁armorum": 4516, "▁pretium": 4517, "ong": 4518, "crib": 4519, "itti": 4520, "ecutus": 4521, "▁caesa": 4522, "▁grand": 4523, "▁porro": 4524, "▁person": 4525, "tulerunt": 4526, "▁propius": 4527, "▁reliqui": 4528, "▁militiae": 4529, "▁Luci": 4530, "▁conu": 4531, "▁Fabio": 4532, "▁barbar": 4533, "▁stomach": 4534, "▁Ego": 4535, "▁abd": 4536, "▁far": 4537, "▁retro": 4538, "▁passus": 4539, "▁testim": 4540, "da": 4541, "▁Cret": 4542, "▁respondit": 4543, "acem": 4544, "▁taed": 4545, "▁Satur": 4546, "▁inuti": 4547, "▁poenas": 4548, "▁á": 4549, "▁En": 4550, "bris": 4551, "▁arce": 4552, "usquam": 4553, "▁longo": 4554, "▁orbis": 4555, "▁veniam": 4556, "▁Tu": 4557, "iturus": 4558, "▁propin": 4559, "▁Phr": 4560, "▁libris": 4561, "▁materi": 4562, "▁consensu": 4563, "▁pertinet": 4564, "til": 4565, "▁uos": 4566, "ellit": 4567, "▁erup": 4568, "▁uxor": 4569, "▁captiv": 4570, "▁habitus": 4571, "▁eb": 4572, "issus": 4573, "▁matrem": 4574, "▁circumv": 4575, "▁pondere": 4576, "▁iniuriam": 4577, "▁Peri": 4578, "▁clem": 4579, "▁erip": 4580, "▁moli": 4581, "tusque": 4582, "▁Liv": 4583, "▁dicat": 4584, "▁Pompei": 4585, "▁facerent": 4586, "▁auri": 4587, "▁amici": 4588, "▁avers": 4589, "▁mirum": 4590, "▁Fortun": 4591, "▁arbitror": 4592, "▁j": 4593, "▁aedem": 4594, "▁piper": 4595, "▁diligenter": 4596, "▁iussu": 4597, "▁munim": 4598, "▁ipsorum": 4599, "▁persequ": 4600, "modo": 4601, "ellam": 4602, "▁Flam": 4603, "▁vine": 4604, "▁delib": 4605, "▁increp": 4606, "▁nostram": 4607, "trib": 4608, "▁ferri": 4609, "▁capill": 4610, "▁cumque": 4611, "▁perturb": 4612, "ursu": 4613, "▁populis": 4614, "di": 4615, "idia": 4616, "iosa": 4617, "elius": 4618, "eraque": 4619, "▁Attal": 4620, "▁praepos": 4621, "▁deditionem": 4622, "illim": 4623, "▁munus": 4624, "▁transl": 4625, "▁finibus": 4626, "▁comitiis": 4627, "▁Hos": 4628, "▁Troi": 4629, "▁bono": 4630, "▁adsid": 4631, "▁filiam": 4632, "ecus": 4633, "▁gign": 4634, "▁opul": 4635, "▁acced": 4636, "▁iudici": 4637, "▁monstr": 4638, "▁requir": 4639, "▁quomodo": 4640, "▁scripsit": 4641, "▁praetorem": 4642, "▁tene": 4643, "▁morta": 4644, "▁sublim": 4645, "▁pab": 4646, "▁preti": 4647, "▁confestim": 4648, "▁contionem": 4649, "xum": 4650, "ulta": 4651, "▁fov": 4652, "▁vom": 4653, "▁capit": 4654, "▁daret": 4655, "▁isdem": 4656, "▁habeant": 4657, "▁III": 4658, "▁novum": 4659, "▁eccles": 4660, "▁negoti": 4661, "08": 4662, "▁curae": 4663, "▁insula": 4664, "▁conserv": 4665, "▁dens": 4666, "▁tale": 4667, "▁infam": 4668, "sam": 4669, "overs": 4670, "▁angus": 4671, "▁eae": 4672, "▁neut": 4673, "▁reliquit": 4674, "▁Arc": 4675, "▁lin": 4676, "▁maiorum": 4677, "▁corporibus": 4678, "ivm": 4679, "men": 4680, "▁adu": 4681, "▁fasc": 4682, "▁tuas": 4683, "▁auxilio": 4684, "▁celerit": 4685, "oth": 4686, "▁pap": 4687, "▁Graecia": 4688, "▁nusquam": 4689, "▁precibus": 4690, "▁Carthaginienses": 4691, "▁lep": 4692, "▁vult": 4693, "▁officio": 4694, "tumque": 4695, "▁ventur": 4696, "▁civis": 4697, "▁accipere": 4698, "▁dissimul": 4699, "—,": 4700, "▁Lep": 4701, "▁iram": 4702, "▁perl": 4703, "▁colum": 4704, "▁faciat": 4705, "▁fecerat": 4706, "▁invidia": 4707, "▁silentio": 4708, "ienn": 4709, "▁mundi": 4710, "▁gentem": 4711, "▁etiamsi": 4712, "▁singula": 4713, "arit": 4714, "irem": 4715, "▁cus": 4716, "▁fero": 4717, "▁fidei": 4718, "▁opprim": 4719, "▁habebant": 4720, "atric": 4721, "tique": 4722, "▁liqu": 4723, "▁armati": 4724, "▁auctore": 4725, "▁ingentem": 4726, "orus": 4727, "▁ecce": 4728, "▁emin": 4729, "▁secur": 4730, "averant": 4731, "▁recipi": 4732, "▁exercitibus": 4733, "▁)": 4734, "▁artis": 4735, "▁fronte": 4736, "▁ordines": 4737, "▁societatem": 4738, "tant": 4739, "▁Kal": 4740, "iretur": 4741, "▁verbo": 4742, "▁conloqu": 4743, "▁convers": 4744, "▁puls": 4745, "▁plena": 4746, "▁pondo": 4747, "▁quique": 4748, "▁Graecis": 4749, "▁coniect": 4750, "▁penitus": 4751, "▁Sol": 4752, "▁impon": 4753, "▁incep": 4754, "▁inpon": 4755, "▁muris": 4756, "▁cunctis": 4757, "▁adn": 4758, "▁rati": 4759, "▁dedic": 4760, "▁hae": 4761, "▁iugum": 4762, "▁Tarent": 4763, "▁maximum": 4764, "aeum": 4765, "▁isti": 4766, "▁perse": 4767, "▁administr": 4768, "amina": 4769, "▁digna": 4770, "▁gratul": 4771, "▁terror": 4772, "anquam": 4773, "▁coniunx": 4774, "▁subinde": 4775, "▁Graeciae": 4776, "▁consulatum": 4777, "▁í": 4778, "turos": 4779, "▁Gallis": 4780, "▁Samnites": 4781, "erter": 4782, "▁semen": 4783, "▁capere": 4784, "▁servit": 4785, "▁fecerit": 4786, "▁gratias": 4787, "▁fuissent": 4788, "▁Sempronius": 4789, "▁XXX": 4790, "tigit": 4791, "▁deform": 4792, "▁poterit": 4793, "▁consultum": 4794, "▁CH": 4795, "▁Cato": 4796, "▁brevi": 4797, "▁videt": 4798, "▁intend": 4799, "▁procur": 4800, "▁secutus": 4801, "▁terrorem": 4802, "▁ues": 4803, "▁Camill": 4804, "▁induti": 4805, "▁negotium": 4806, "▁ro": 4807, "bant": 4808, "prop": 4809, "tios": 4810, "▁controvers": 4811, "▁Cer": 4812, "▁Sil": 4813, "itque": 4814, "▁Brit": 4815, "▁uinc": 4816, "▁inlus": 4817, "▁deprec": 4818, "▁fraude": 4819, "▁templa": 4820, "▁verbum": 4821, "▁communi": 4822, "▁montibus": 4823, "▁separ": 4824, "▁clades": 4825, "amen": 4826, "▁nata": 4827, "▁contemn": 4828, "▁beneficio": 4829, "▁Qua": 4830, "▁divid": 4831, "▁illorum": 4832, "▁constitu": 4833, "▁Capitolio": 4834, "urn": 4835, "▁Del": 4836, "abunt": 4837, "▁stim": 4838, "▁Nihil": 4839, "▁putat": 4840, "▁German": 4841, "▁legatus": 4842, "▁oportere": 4843, "▁vehementer": 4844, "▁cy": 4845, "trah": 4846, "▁ultima": 4847, "▁aliorum": 4848, "▁ignem": 4849, "▁tristi": 4850, "▁dicendo": 4851, "▁maritim": 4852, "▁officium": 4853, "▁pe": 4854, "▁Vei": 4855, "▁Asiam": 4856, "▁socii": 4857, "▁inimic": 4858, "▁litore": 4859, "▁bonorum": 4860, "▁episcop": 4861, "anas": 4862, "▁inex": 4863, "▁ossa": 4864, "▁natum": 4865, "▁intest": 4866, "▁periculi": 4867, "▁(4": 4868, "▁Agri": 4869, "▁poll": 4870, "▁umbra": 4871, "▁amicis": 4872, "▁principem": 4873, "tif": 4874, "▁rab": 4875, "▁velis": 4876, "atusque": 4877, "▁fratre": 4878, "aeo": 4879, "rus": 4880, "▁Pri": 4881, "▁vale": 4882, "▁vota": 4883, "▁Olymp": 4884, "▁legum": 4885, "▁ludos": 4886, "▁Hannibale": 4887, "▁uni": 4888, "ticus": 4889, "▁culpa": 4890, "▁honos": 4891, "▁dexter": 4892, "▁habita": 4893, "▁tellus": 4894, "▁necessaria": 4895, "▁rect": 4896, "▁tumultus": 4897, "▁Sen": 4898, "▁aem": 4899, "▁pin": 4900, "▁uelut": 4901, "▁ausus": 4902, "▁salub": 4903, "ensibus": 4904, "▁melior": 4905, "▁Caesare": 4906, "▁concilium": 4907, "isci": 4908, "▁Uol": 4909, "toribus": 4910, "▁audire": 4911, "▁socium": 4912, "▁duodecim": 4913, "erari": 4914, "▁seru": 4915, "▁Chalc": 4916, "▁pugnatum": 4917, "gi": 4918, "▁seg": 4919, "▁Syph": 4920, "▁vultus": 4921, "▁carmina": 4922, "▁scripta": 4923, "▁equitatu": 4924, "▁scr": 4925, "▁ignes": 4926, "▁voluit": 4927, "▁praemia": 4928, "▁tranqui": 4929, "▁uterque": 4930, "▁relictis": 4931, "abam": 4932, "itare": 4933, "▁latr": 4934, "▁ulter": 4935, "▁aequum": 4936, "▁sacris": 4937, "▁tantam": 4938, "▁Cae": 4939, "amenta": 4940, "▁certo": 4941, "▁legis": 4942, "▁Gallia": 4943, "▁liquid": 4944, "▁templo": 4945, "▁virorum": 4946, "▁incommod": 4947, "eatur": 4948, "▁celer": 4949, "▁pectus": 4950, "▁relicto": 4951, "▁Quirites": 4952, "▁Sam": 4953, "▁ducit": 4954, "▁gente": 4955, "▁missis": 4956, "▁sidera": 4957, "▁fru": 4958, "▁ual": 4959, "ioris": 4960, "▁alic": 4961, "▁initio": 4962, "▁munera": 4963, "▁proprie": 4964, "▁amicitia": 4965, "▁praesentia": 4966, "▁sententiae": 4967, "▁Aequ": 4968, "▁elig": 4969, "▁motu": 4970, "▁lacess": 4971, "▁lumina": 4972, "▁Britann": 4973, "atore": 4974, "▁scal": 4975, "▁habes": 4976, "ariorum": 4977, "rop": 4978, "▁Op": 4979, "▁larg": 4980, "▁vast": 4981, "▁hercule": 4982, "uro": 4983, "atia": 4984, "tring": 4985, "▁stare": 4986, "▁accepta": 4987, "▁studiis": 4988, "▁totidem": 4989, "▁victoriae": 4990, "':": 4991, "..": 4992, "▁Bacch": 4993, "▁sepul": 4994, "▁produc": 4995, "▁Capitolium": 4996, "emit": 4997, "▁rhet": 4998, "ecerunt": 4999, "▁repent": 5000, "▁reciper": 5001, "▁accessit": 5002, "ugit": 5003, "▁osc": 5004, "▁vini": 5005, "▁ortus": 5006, "▁Demetr": 5007, "▁deinceps": 5008, "▁tep": 5009, "▁isto": 5010, "icibus": 5011, "▁maiora": 5012, "mus": 5013, "▁Phryg": 5014, "▁liberi": 5015, "▁passuum": 5016, "▁positis": 5017, "vae": 5018, "▁ars": 5019, "▁mos": 5020, "▁uig": 5021, "▁perg": 5022, "▁campo": 5023, "▁coerc": 5024, "▁evenit": 5025, "▁preces": 5026, "▁aliquod": 5027, "▁regione": 5028, "▁vestrum": 5029, "▁minister": 5030, "▁scribere": 5031, "▁visc": 5032, "▁quaeso": 5033, "▁transe": 5034, "aei": 5035, "▁qual": 5036, "tilius": 5037, "▁montis": 5038, "▁eleg": 5039, "▁feri": 5040, "▁otium": 5041, "▁voluc": 5042, "▁absump": 5043, "▁artific": 5044, "▁Var": 5045, "ocles": 5046, "eratum": 5047, "▁Lucre": 5048, "edum": 5049, "modi": 5050, "escat": 5051, "▁sinu": 5052, "▁debent": 5053, "▁mediam": 5054, "▁potissimum": 5055, "▁Aqu": 5056, "▁term": 5057, "▁monte": 5058, "▁vestigia": 5059, "▁lar": 5060, "▁pun": 5061, "▁lect": 5062, "▁atroc": 5063, "▁certi": 5064, "▁missa": 5065, "▁sermo": 5066, "▁caedes": 5067, "▁insidiis": 5068, "▁Il": 5069, "▁Aus": 5070, "▁Pall": 5071, "▁audita": 5072, "▁obviam": 5073, "▁raptim": 5074, "asi": 5075, "▁spei": 5076, "▁fugae": 5077, "▁pares": 5078, "▁simili": 5079, "ibr": 5080, "▁PA": 5081, "▁pall": 5082, "▁Etrur": 5083, "▁amnem": 5084, "▁autum": 5085, "▁pauca": 5086, "atisque": 5087, "▁formid": 5088, "▁indulg": 5089, "▁discept": 5090, "▁ultimum": 5091, "▁facturum": 5092, "tias": 5093, "estri": 5094, "▁carp": 5095, "▁adici": 5096, "▁porta": 5097, "▁etenim": 5098, "orr": 5099, "▁Pop": 5100, "▁nig": 5101, "▁spum": 5102, "▁primam": 5103, "▁fiducia": 5104, "▁adventum": 5105, "▁imperatoris": 5106, "asit": 5107, "▁Fal": 5108, "▁recepit": 5109, "▁vestris": 5110, "icas": 5111, "▁morem": 5112, "▁vultu": 5113, "▁amicos": 5114, "▁opibus": 5115, "▁placere": 5116, "▁nascitur": 5117, ",'": 5118, "actus": 5119, "▁vides": 5120, "▁milium": 5121, "▁vidi": 5122, "▁expet": 5123, "▁pudor": 5124, "▁mulier": 5125, "▁antequam": 5126, "▁operibus": 5127, "▁ium": 5128, "atique": 5129, "▁attin": 5130, "▁felix": 5131, "▁acciper": 5132, "▁regibus": 5133, "▁Aemilius": 5134, "ursum": 5135, "▁curia": 5136, "▁oppos": 5137, "▁ornam": 5138, "▁portus": 5139, "▁possis": 5140, "▁bov": 5141, "▁aliena": 5142, "▁interm": 5143, "▁auribus": 5144, "▁tub": 5145, "rique": 5146, "▁admov": 5147, "▁duxit": 5148, "▁difficul": 5149, "▁Chr": 5150, "▁tog": 5151, "onsul": 5152, "torem": 5153, "▁negat": 5154, "▁consump": 5155, "trag": 5156, "▁avar": 5157, "▁Herac": 5158, "▁senex": 5159, "▁renunti": 5160, "▁temporum": 5161, "tern": 5162, "▁nesc": 5163, "eratus": 5164, "ationum": 5165, "▁uirtut": 5166, "reg": 5167, "▁Hib": 5168, "▁Venus": 5169, "▁didic": 5170, "▁portum": 5171, "▁specul": 5172, "▁Fulvius": 5173, "▁simplic": 5174, "▁Ille": 5175, "▁Asiae": 5176, "▁Cornelio": 5177, "▁Hel": 5178, "▁cibum": 5179, "▁denunti": 5180, "▁insuper": 5181, "▁extremum": 5182, "RA": 5183, "ins": 5184, "etem": 5185, "▁Agripp": 5186, "▁relicta": 5187, "▁argentum": 5188, "▁religione": 5189, "▁auctoritatem": 5190, "▁egit": 5191, "▁libr": 5192, "▁istius": 5193, "▁victus": 5194, "▁memoriae": 5195, "▁occasionem": 5196, "▁uix": 5197, "ectig": 5198, "▁tuta": 5199, "▁desin": 5200, "▁tribunic": 5201, "tarum": 5202, "▁differ": 5203, "▁celeriter": 5204, "-(": 5205, "▁Bal": 5206, "▁asc": 5207, "▁uer": 5208, "▁sinus": 5209, "▁fastid": 5210, "▁praecl": 5211, "▁aetatem": 5212, "▁secundo": 5213, "▁lacrimis": 5214, "-(.": 5215, "ixa": 5216, "▁Vir": 5217, "ucius": 5218, "▁orbe": 5219, "▁alien": 5220, "▁annus": 5221, "▁putas": 5222, "▁iisdem": 5223, "▁interea": 5224, "▁totiens": 5225, "▁consilii": 5226, "ela": 5227, "▁lub": 5228, "▁#1108": 5229, "erna": 5230, "▁Papir": 5231, "▁palud": 5232, "▁artibus": 5233, "▁gentibus": 5234, "eos": 5235, "▁did": 5236, "▁argu": 5237, "▁dubie": 5238, "▁langu": 5239, "▁quale": 5240, "erentem": 5241, "▁bellis": 5242, "▁dignitate": 5243, "aeb": 5244, "utam": 5245, "▁Str": 5246, "▁folia": 5247, "▁stirp": 5248, "▁valetud": 5249, "▁Antiochum": 5250, "▁tex": 5251, "▁istis": 5252, "▁videb": 5253, "▁Claudio": 5254, "▁Hannibali": 5255, "▁civitatibus": 5256, "▁meos": 5257, "▁tutum": 5258, "▁immort": 5259, "▁proced": 5260, "▁tempestate": 5261, "ilo": 5262, "▁Dic": 5263, "iculo": 5264, "ellere": 5265, "▁factis": 5266, "▁iucund": 5267, "▁latere": 5268, "circ": 5269, "▁Pub": 5270, "▁reus": 5271, "bantur": 5272, "iculum": 5273, "▁clade": 5274, "▁odium": 5275, "▁potui": 5276, "▁talia": 5277, "▁dictis": 5278, "▁adventu": 5279, "▁urbibus": 5280, "▁collegae": 5281, "▁Nic": 5282, "▁laes": 5283, "▁filii": 5284, "▁maria": 5285, "▁adesse": 5286, "▁crimine": 5287, "▁tumultum": 5288, "▁Vit": 5289, "ensem": 5290, "▁somno": 5291, "▁toler": 5292, "▁cornua": 5293, "▁tantis": 5294, "▁collega": 5295, "▁finitim": 5296, "▁prodest": 5297, "▁vulnera": 5298, "entissime": 5299, "▁verecund": 5300, "▁discrimine": 5301, "elles": 5302, "▁estis": 5303, "▁consult": 5304, "▁Hannibalis": 5305, "urgit": 5306, "▁subd": 5307, "errent": 5308, "▁libenter": 5309, "▁Sall": 5310, "▁pign": 5311, "iendum": 5312, "▁caedem": 5313, "iniam": 5314, "▁tuto": 5315, "▁coram": 5316, "▁istuc": 5317, "▁sedes": 5318, "▁diversa": 5319, "▁auctorem": 5320, "▁concilio": 5321, "▁praetori": 5322, "▁Aut": 5323, "▁feb": 5324, "antum": 5325, "▁)-(.": 5326, "▁dura": 5327, "▁laet": 5328, "▁dolores": 5329, "▁positum": 5330, "▁dicendum": 5331, "▁la": 5332, "▁IIII": 5333, "▁lass": 5334, "▁artus": 5335, "▁ictus": 5336, "▁innum": 5337, "▁maximo": 5338, "▁usquam": 5339, "▁complex": 5340, "issam": 5341, "▁alta": 5342, "▁delig": 5343, "▁depop": 5344, "▁filia": 5345, "▁legit": 5346, "▁pretio": 5347, "▁utendum": 5348, "▁multorum": 5349, "▁excip": 5350, "▁insol": 5351, "▁laeta": 5352, "▁parric": 5353, "▁locorum": 5354, "▁habuisse": 5355, "vam": 5356, "▁Le": 5357, "▁nat": 5358, "▁divin": 5359, "▁quoad": 5360, "▁vicem": 5361, "▁Ins": 5362, "▁ordin": 5363, "▁plebs": 5364, "▁sagit": 5365, "▁honoris": 5366, "▁oculorum": 5367, "▁armatorum": 5368, "▁sa": 5369, "anter": 5370, "▁flagr": 5371, "▁timor": 5372, "▁ullam": 5373, "▁penetr": 5374, "▁studia": 5375, "arat": 5376, "sitan": 5377, "▁cito": 5378, "▁membr": 5379, "▁signo": 5380, "▁Gallos": 5381, "▁consequ": 5382, "▁castrorum": 5383, "▁libertate": 5384, "▁cun": 5385, "▁Dard": 5386, "▁dona": 5387, "▁erep": 5388, "▁defic": 5389, "▁incol": 5390, "▁praesidiis": 5391, "▁irae": 5392, "▁pedum": 5393, "▁captum": 5394, "▁quaeritur": 5395, "essi": 5396, "▁abl": 5397, "gitud": 5398, "iosum": 5399, "▁germ": 5400, "▁hora": 5401, "▁ademp": 5402, "▁strag": 5403, "▁gubern": 5404, "▁septim": 5405, "▁initium": 5406, "▁faciendum": 5407, "▁significat": 5408, "iose": 5409, "▁equi": 5410, "▁oram": 5411, "▁virgo": 5412, "itumque": 5413, "▁principis": 5414, "illi": 5415, "▁novo": 5416, "▁impedim": 5417, "▁Graeciam": 5418, "▁prospere": 5419, "▁VI": 5420, "terr": 5421, "tiae": 5422, "▁mach": 5423, "eritis": 5424, "itorum": 5425, "▁Tuscul": 5426, "▁oporte": 5427, "▁commune": 5428, "▁scelere": 5429, "▁Macedonia": 5430, "▁triumphum": 5431, "▁Av": 5432, "▁laed": 5433, "▁supr": 5434, "▁uobis": 5435, "▁detrah": 5436, "▁miseri": 5437, "▁perduc": 5438, "▁flumine": 5439, "empe": 5440, "▁Meg": 5441, "▁istum": 5442, "▁nonne": 5443, "▁stell": 5444, "▁transm": 5445, "▁pig": 5446, "▁sop": 5447, "▁renov": 5448, "amentum": 5449, "▁dissip": 5450, "▁conspic": 5451, "▁occidit": 5452, "▁longitud": 5453, ".\"": 5454, "▁-": 5455, "▁Dol": 5456, "abiles": 5457, "▁navis": 5458, "▁corona": 5459, "▁civibus": 5460, "▁Pompeius": 5461, "▁quaerere": 5462, "▁industria": 5463, "ych": 5464, "quod": 5465, "▁concit": 5466, "▁nequaquam": 5467, "veh": 5468, "▁Os": 5469, "isum": 5470, "▁emp": 5471, "▁artem": 5472, "▁pestil": 5473, "▁revert": 5474, "▁perspic": 5475, "▁Philippi": 5476, "IS": 5477, "isus": 5478, "essent": 5479, "▁falsa": 5480, "▁infin": 5481, "▁secus": 5482, "▁auctoritas": 5483, "▁Eph": 5484, "▁pep": 5485, "▁modis": 5486, "▁maximus": 5487, "▁Furius": 5488, "▁prouinci": 5489, "▁evoc": 5490, "▁trip": 5491, "ocrates": 5492, "▁extrema": 5493, "▁ingenii": 5494, "▁esc": 5495, "▁pus": 5496, "itura": 5497, "▁Char": 5498, "▁vias": 5499, "▁levis": 5500, "▁amicum": 5501, "▁plurima": 5502, "▁dixerunt": 5503, "titit": 5504, "▁brac": 5505, "▁plen": 5506, "▁foris": 5507, "▁pudic": 5508, "▁Aeneas": 5509, "▁tantae": 5510, "▁virium": 5511, "gen": 5512, "odi": 5513, "issae": 5514, "istin": 5515, "iderat": 5516, "▁illuc": 5517, "▁amplex": 5518, "▁nullis": 5519, "▁Co": 5520, "oniae": 5521, "iliter": 5522, "▁expon": 5523, "▁tueri": 5524, "▁duorum": 5525, "▁insidi": 5526, "▁marique": 5527, "▁patrici": 5528, "▁familiae": 5529, "vol": 5530, "▁gn": 5531, "▁Por": 5532, "▁ortum": 5533, "▁visus": 5534, "▁terrore": 5535, "▁magistratum": 5536, "ivi": 5537, "icip": 5538, "▁abn": 5539, "▁lec": 5540, "▁Quem": 5541, "▁orta": 5542, "▁Varro": 5543, "▁movit": 5544, "▁valde": 5545, "▁bellic": 5546, "▁colore": 5547, "▁poenam": 5548, "▁pedites": 5549, "▁amicorum": 5550, "VII": 5551, "▁Asc": 5552, "▁ambul": 5553, "▁oculi": 5554, "▁dierum": 5555, "▁disper": 5556, "▁propria": 5557, "▁vitiis": 5558, "iduo": 5559, "▁Oce": 5560, "▁amo": 5561, "▁nati": 5562, "▁matron": 5563, "▁iuvenis": 5564, "▁Com": 5565, "▁Ubi": 5566, "▁numm": 5567, "▁subm": 5568, "▁longum": 5569, "▁aestate": 5570, "▁patitur": 5571, "itter": 5572, "▁Illyr": 5573, "▁gener": 5574, "▁theat": 5575, "▁vallo": 5576, "▁semina": 5577, "▁vulnus": 5578, "▁cohortes": 5579, "▁dixisset": 5580, "▁publicis": 5581, "▁testis": 5582, "▁alienum": 5583, "▁quodque": 5584, "▁2": 5585, "▁Mag": 5586, "▁marm": 5587, "▁pess": 5588, "▁surg": 5589, "▁bonus": 5590, "▁ceter": 5591, "▁essem": 5592, "▁resol": 5593, "▁vitio": 5594, "▁fecisset": 5595, "▁invidiam": 5596, "▁contentus": 5597, "▁praecepta": 5598, "ribus": 5599, "▁istam": 5600, "▁torqu": 5601, "▁destit": 5602, "▁repreh": 5603, "▁repugn": 5604, "▁Aetolorum": 5605, "▁periculos": 5606, "▁doctr": 5607, "▁haberi": 5608, "▁ignosc": 5609, "▁saltem": 5610, "▁Fid": 5611, "▁virtu": 5612, "acumque": 5613, "▁censor": 5614, "▁domini": 5615, "▁mittere": 5616, "▁animorum": 5617, "▁pleraque": 5618, "▁obsidione": 5619, "▁Samnitibus": 5620, "▁aliquantum": 5621, "▁praefectus": 5622, "▁uers": 5623, "▁exempla": 5624, "▁Postumius": 5625, "iant": 5626, "▁Lig": 5627, "tingu": 5628, "▁mend": 5629, "▁turr": 5630, "avimus": 5631, "▁ampli": 5632, "▁foliis": 5633, "▁munere": 5634, "▁perfug": 5635, "▁communis": 5636, "▁igni": 5637, "▁sedem": 5638, "▁tectis": 5639, "▁similes": 5640, "▁studium": 5641, "ace": 5642, "estia": 5643, "▁inpl": 5644, "▁trax": 5645, "▁iusta": 5646, "▁numen": 5647, "▁similia": 5648, "▁Dum": 5649, "ortus": 5650, "▁talem": 5651, "▁iuvenes": 5652, "▁decretum": 5653, "▁Sulpicius": 5654, "▁disciplina": 5655, "acto": 5656, "▁Nov": 5657, "▁anc": 5658, "▁Epir": 5659, "▁foss": 5660, "▁cresc": 5661, "▁emend": 5662, "▁coepta": 5663, "▁praeerat": 5664, "▁traditur": 5665, "▁Opp": 5666, "▁mad": 5667, "aniam": 5668, "▁beat": 5669, "▁modus": 5670, "▁telis": 5671, "▁spolia": 5672, "▁quendam": 5673, "▁obt": 5674, "iuntur": 5675, "▁pueri": 5676, "inn": 5677, "▁priu": 5678, "▁sorte": 5679, "▁compon": 5680, "▁amicitiae": 5681, "oro": 5682, "▁Pra": 5683, "ellas": 5684, "▁congr": 5685, "▁dubio": 5686, "▁veris": 5687, "▁confic": 5688, "▁videmus": 5689, "▁ingressus": 5690, "osum": 5691, "▁Ian": 5692, "▁XII": 5693, "▁sch": 5694, "▁Syri": 5695, "▁mitti": 5696, "▁vectig": 5697, "erebatur": 5698, "▁decreta": 5699, "▁tenebris": 5700, "edib": 5701, "▁direp": 5702, "▁laboris": 5703, "▁adulescens": 5704, "ebunt": 5705, "▁alum": 5706, "▁decet": 5707, "▁moder": 5708, "▁penes": 5709, "▁utile": 5710, "▁vocat": 5711, "▁exprim": 5712, "▁continu": 5713, "▁process": 5714, "erens": 5715, "ertere": 5716, "▁abduc": 5717, "▁laude": 5718, "▁cursus": 5719, "▁annorum": 5720, "sos": 5721, "circo": 5722, "▁parem": 5723, "▁declin": 5724, "▁Antonius": 5725, "▁frequenter": 5726, "▁Carthaginem": 5727, "essa": 5728, "tico": 5729, "▁Ptol": 5730, "▁levi": 5731, "▁caper": 5732, "▁comes": 5733, "▁alieno": 5734, "▁puerum": 5735, "▁cuiquam": 5736, "arique": 5737, "▁frang": 5738, "▁transc": 5739, "olo": 5740, "aces": 5741, "batur": 5742, "▁onus": 5743, "▁oleum": 5744, "▁bracch": 5745, "▁Licinius": 5746, "▁ant": 5747, "▁unc": 5748, "▁croc": 5749, "▁haus": 5750, "▁artes": 5751, "▁duplic": 5752, "▁Aetolos": 5753, "▁laborem": 5754, "▁Ali": 5755, "▁neu": 5756, "▁acri": 5757, "▁atro": 5758, "▁unda": 5759, "▁bland": 5760, "▁infra": 5761, "▁vulgo": 5762, "▁design": 5763, "▁venerat": 5764, "aph": 5765, "bis": 5766, "abor": 5767, "▁quere": 5768, "▁stagn": 5769, "▁traduc": 5770, "▁Quinctio": 5771, "▁parentes": 5772, "▁silentium": 5773, "▁cing": 5774, "▁voln": 5775, "▁pristin": 5776, "▁similem": 5777, "▁magistratibus": 5778, "▁nosc": 5779, "▁Fabium": 5780, "▁contrah": 5781, "▁iudicia": 5782, "▁insidias": 5783, "aea": 5784, "▁Caeci": 5785, "▁genti": 5786, "▁cognov": 5787, "▁cu": 5788, "▁nequ": 5789, "▁cruci": 5790, "▁voces": 5791, "▁habitu": 5792, "▁fratres": 5793, "▁forsitan": 5794, "▁interest": 5795, "▁Hasdrubal": 5796, "▁imperatores": 5797, "bit": 5798, "▁tes": 5799, "▁pacto": 5800, "▁campos": 5801, "▁animadver": 5802, "▁tranquill": 5803, "▁Sos": 5804, "▁mel": 5805, "▁Iovi": 5806, "▁quoc": 5807, "▁altum": 5808, "▁status": 5809, "▁insulam": 5810, "▁Te": 5811, "exit": 5812, "▁curiam": 5813, "▁utinam": 5814, "▁Aetolis": 5815, "▁suspect": 5816, "▁Thessali": 5817, "▁proprium": 5818, "▁proximum": 5819, "▁praecipit": 5820, "▁auctoribus": 5821, "▁Lac": 5822, "▁lav": 5823, "▁domino": 5824, "▁fortis": 5825, "▁materiam": 5826, "imi": 5827, "anth": 5828, "eiun": 5829, "▁Mac": 5830, "▁poc": 5831, "▁pupp": 5832, "▁milite": 5833, "▁accidit": 5834, "▁confect": 5835, "▁consecr": 5836, "▁depopul": 5837, "▁salutis": 5838, "▁decemvir": 5839, "iso": 5840, "jus": 5841, "onae": 5842, "otem": 5843, "turi": 5844, "decim": 5845, "▁invad": 5846, "▁parens": 5847, "dis": 5848, "▁Io": 5849, "ugis": 5850, "▁lacer": 5851, "▁locup": 5852, "▁plaus": 5853, "▁provid": 5854, "▁provoc": 5855, "▁iudicem": 5856, "▁itineribus": 5857, "ulsa": 5858, "▁Cot": 5859, "orsum": 5860, "▁erud": 5861, "▁Numid": 5862, "▁luxur": 5863, "▁matre": 5864, "▁tribu": 5865, "▁liberum": 5866, "▁Ly": 5867, "idio": 5868, "▁inb": 5869, "▁nuc": 5870, "▁consu": 5871, "▁delic": 5872, "▁ignav": 5873, "▁opinor": 5874, "▁prorog": 5875, "▁addidit": 5876, "▁pericula": 5877, "▁Hispaniae": 5878, "REM": 5879, "etes": 5880, "icula": 5881, "tates": 5882, "▁ictu": 5883, "▁Phoeb": 5884, "▁magnae": 5885, "▁minore": 5886, "▁commeatus": 5887, "AE": 5888, "esto": 5889, "andas": 5890, "turae": 5891, "▁neve": 5892, "▁vener": 5893, "▁disced": 5894, "▁Scipionis": 5895, "▁legatorum": 5896, "nec": 5897, "aestr": 5898, "▁dedi": 5899, "▁erump": 5900, "▁spati": 5901, "▁Celtib": 5902, "▁salute": 5903, "▁superf": 5904, "▁obsides": 5905, "▁vulnere": 5906, "▁Claudium": 5907, "▁praestit": 5908, "ectos": 5909, "▁feci": 5910, "▁ieiun": 5911, "itionis": 5912, "▁negare": 5913, "▁redire": 5914, "▁suarum": 5915, "▁Etruria": 5916, "▁praeterm": 5917, "▁reliquum": 5918, "▁necessarium": 5919, "ema": 5920, "▁Hern": 5921, "▁precor": 5922, "▁stetit": 5923, "▁benigne": 5924, "anio": 5925, "viri": 5926, "▁Cet": 5927, "▁Verum": 5928, "▁medit": 5929, "▁movet": 5930, "▁tenui": 5931, "▁supplicium": 5932, "ont": 5933, "▁Su": 5934, "atior": 5935, "▁agmina": 5936, "▁forent": 5937, "▁mediis": 5938, "▁superv": 5939, "▁tradit": 5940, "▁fructus": 5941, "▁immorta": 5942, "▁principibus": 5943, "ulsi": 5944, "▁Tox": 5945, "▁nou": 5946, "eamus": 5947, "▁fine": 5948, "▁condem": 5949, "▁exitus": 5950, "▁femina": 5951, "▁idcirco": 5952, "▁quadring": 5953, "quo": 5954, "amine": 5955, "timus": 5956, "▁gall": 5957, "▁apparet": 5958, "▁nuntiatum": 5959, "▁praesenti": 5960, "▁tribunorum": 5961, "▁tus": 5962, "▁veri": 5963, "▁datus": 5964, "▁adversa": 5965, "▁conatus": 5966, "▁proinde": 5967, "▁incredib": 5968, "ipi": 5969, "▁70": 5970, "ades": 5971, "▁Mam": 5972, "▁Pyr": 5973, "ineat": 5974, "undus": 5975, "▁murm": 5976, "▁seri": 5977, "▁Europ": 5978, "▁navem": 5979, "tulerat": 5980, "▁copiae": 5981, "▁inopia": 5982, "▁militi": 5983, "▁hiberna": 5984, "▁praesidii": 5985, "rae": 5986, "▁reum": 5987, "▁illas": 5988, "▁lacte": 5989, "▁nesci": 5990, "▁novis": 5991, "gressum": 5992, "▁introd": 5993, "▁Corinth": 5994, "▁concord": 5995, "▁gratiae": 5996, "▁praeceps": 5997, "▁litterarum": 5998, "TIC": 5999, "prob": 6000, "▁Prim": 6001, "▁fert": 6002, "▁fidel": 6003, "▁aliqui": 6004, "▁senect": 6005, "IO": 6006, "tii": 6007, "eios": 6008, "nius": 6009, "▁LXX": 6010, "▁adop": 6011, "▁plan": 6012, "▁cohor": 6013, "▁consol": 6014, "▁figura": 6015, "▁tenere": 6016, "?'": 6017, "▁Fac": 6018, "▁fef": 6019, "▁Treb": 6020, "▁suav": 6021, "▁aiunt": 6022, "▁strep": 6023, "▁vocab": 6024, "numquam": 6025, "▁adhort": 6026, "▁captus": 6027, "▁declar": 6028, "▁montem": 6029, "▁infelix": 6030, "▁insignis": 6031, "▁ax": 6032, "pexit": 6033, "▁muro": 6034, "▁vana": 6035, "▁concep": 6036, "▁maximeque": 6037, "olim": 6038, "▁Domin": 6039, "▁Scyth": 6040, "▁iuvat": 6041, "▁cecidit": 6042, "▁fructum": 6043, "▁nullius": 6044, "▁fluminis": 6045, "▁videantur": 6046, "erp": 6047, "illa": 6048, "ecuti": 6049, "ernis": 6050, "▁Galb": 6051, "▁obtr": 6052, "▁decum": 6053, "▁dictus": 6054, "▁magnus": 6055, "▁flumina": 6056, "▁dignitatem": 6057, "▁Hab": 6058, "▁sev": 6059, "▁Plin": 6060, "▁mane": 6061, "▁nimia": 6062, "▁summis": 6063, "▁Perseus": 6064, "▁dixerit": 6065, "▁coqu": 6066, "▁vicit": 6067, "▁Minerv": 6068, "▁Quibus": 6069, "▁formam": 6070, "▁frequens": 6071, "▁appellatur": 6072, "ebras": 6073, "urrere": 6074, "▁caesi": 6075, "acti": 6076, "▁cen": 6077, "▁dia": 6078, "▁diis": 6079, "▁dicis": 6080, "▁undis": 6081, "▁pridie": 6082, "▁dicebat": 6083, "▁prorsus": 6084, "▁praestare": 6085, "REMES": 6086, "▁dorm": 6087, "▁oper": 6088, "abimus": 6089, "titiam": 6090, "▁vigil": 6091, "▁vetust": 6092, "▁Latinis": 6093, "▁statuit": 6094, "ive": 6095, "ecro": 6096, "▁geli": 6097, "▁pell": 6098, "▁aedes": 6099, "▁depon": 6100, "▁noctu": 6101, "▁possid": 6102, "▁proximo": 6103, "▁plerisque": 6104, ",—": 6105, "turam": 6106, "▁Merc": 6107, "▁turm": 6108, "▁aspern": 6109, "▁fastig": 6110, "▁lacrimas": 6111, "▁Alexandri": 6112, "▁ipsas": 6113, "▁trunc": 6114, "▁disser": 6115, "▁mandata": 6116, "▁cuc": 6117, "▁uall": 6118, "▁dubia": 6119, "▁debeat": 6120, "▁purpur": 6121, "▁robore": 6122, "▁sensit": 6123, "▁censores": 6124, "PHO": 6125, "▁aquas": 6126, "▁undas": 6127, "▁legatum": 6128, "▁ordinis": 6129, "ilit": 6130, "▁Hier": 6131, "▁Poen": 6132, "▁iuga": 6133, "ittitur": 6134, "▁defunc": 6135, "▁sacrum": 6136, "▁nunquam": 6137, "▁laudibus": 6138, "▁pertinere": 6139, "▁magnitudinem": 6140, "idius": 6141, "orque": 6142, "▁Ephes": 6143, "▁duplex": 6144, "▁armatos": 6145, "▁consulari": 6146, "▁superiore": 6147, "▁civem": 6148, "▁agitur": 6149, "▁statum": 6150, "▁tantus": 6151, "▁dicerent": 6152, "oras": 6153, "▁repl": 6154, "▁tang": 6155, "▁aquis": 6156, "▁facin": 6157, "▁turpe": 6158, "▁carmen": 6159, "▁conduc": 6160, "▁gaudio": 6161, "▁CHREMES": 6162, "▁familia": 6163, "▁frument": 6164, "▁honestum": 6165, "▁legionum": 6166, "▁quisquis": 6167, "▁consulatus": 6168, "▁AT": 6169, "ueris": 6170, "▁defl": 6171, "▁humana": 6172, "▁pridem": 6173, "▁victis": 6174, "▁habitum": 6175, "▁reddere": 6176, "▁familiar": 6177, "▁fato": 6178, "▁Apuli": 6179, "▁auras": 6180, "▁numina": 6181, "▁obsequ": 6182, "▁ulcera": 6183, "▁labores": 6184, "▁discrimen": 6185, "▁ope": 6186, "▁grau": 6187, "▁abest": 6188, "▁discord": 6189, "iosus": 6190, "tifex": 6191, "▁Tunc": 6192, "▁syll": 6193, "iebant": 6194, "▁varia": 6195, "▁animal": 6196, "▁libros": 6197, "▁matrim": 6198, "▁libertas": 6199, "itte": 6200, "▁meas": 6201, "ressit": 6202, "▁frond": 6203, "▁gladi": 6204, "▁portu": 6205, "▁utque": 6206, "▁veste": 6207, "issimas": 6208, "tulisse": 6209, "▁arcess": 6210, "▁castig": 6211, "▁Galliam": 6212, "▁Veneris": 6213, "▁malorum": 6214, "▁nobilis": 6215, "▁stipendium": 6216, "▁perit": 6217, "▁agnosc": 6218, "▁facili": 6219, "▁laudem": 6220, "▁audacia": 6221, "▁corporum": 6222, "pol": 6223, "udi": 6224, "cili": 6225, "▁Pot": 6226, "▁Sto": 6227, "▁dii": 6228, "▁usurp": 6229, "▁colloc": 6230, "▁Scipione": 6231, "▁accommod": 6232, "▁magistrum": 6233, "▁Mae": 6234, "▁alt": 6235, "▁cent": 6236, "▁manip": 6237, "▁morbi": 6238, "itiones": 6239, "▁Poenus": 6240, "▁amorem": 6241, "▁Ta": 6242, "▁ero": 6243, "▁Flaccus": 6244, "▁Marcius": 6245, "▁inlustr": 6246, "▁intenti": 6247, "▁locutus": 6248, "▁nuntius": 6249, "▁triumpho": 6250, "▁descendit": 6251, "iano": 6252, "▁Mul": 6253, "▁lug": 6254, "ertos": 6255, "ticae": 6256, "▁adep": 6257, "▁pluv": 6258, "▁torr": 6259, "▁gravi": 6260, "▁animam": 6261, "▁offend": 6262, "pice": 6263, "▁gale": 6264, "▁scop": 6265, "▁veloc": 6266, "▁deterr": 6267, "▁Thessal": 6268, "▁conting": 6269, "▁express": 6270, "▁!": 6271, "▁refug": 6272, "entesque": 6273, "▁transire": 6274, "ilc": 6275, "▁Sin": 6276, "ullus": 6277, "▁celeb": 6278, "▁vinci": 6279, "▁municip": 6280, "▁processit": 6281, "▁voluptatem": 6282, "deo": 6283, "ote": 6284, "▁Apr": 6285, "▁raro": 6286, "▁gradu": 6287, "▁obnox": 6288, "▁aspect": 6289, "▁obscur": 6290, "▁recept": 6291, "▁integro": 6292, "▁tyranni": 6293, "▁sollicit": 6294, "▁voluptas": 6295, "az": 6296, "▁Mass": 6297, "▁alac": 6298, "▁alim": 6299, "▁aras": 6300, "▁excell": 6301, "▁multas": 6302, "▁regiam": 6303, "▁condemn": 6304, "▁faucibus": 6305, "▁Antiochus": 6306, "▁comitiorum": 6307, "▁Ob": 6308, "▁Mat": 6309, "▁Camp": 6310, "▁VIII": 6311, "▁rogo": 6312, "temper": 6313, "▁fatis": 6314, "▁quies": 6315, "▁confug": 6316, "tulisset": 6317, "▁supplem": 6318, "▁frumenti": 6319, "▁miserunt": 6320, "▁provinciis": 6321, "aequ": 6322, "estes": 6323, "illum": 6324, "▁ancip": 6325, "▁oblig": 6326, "▁exanim": 6327, "▁unquam": 6328, "▁Pompeio": 6329, "▁recenti": 6330, "▁tribuno": 6331, "▁praemium": 6332, "▁necessitas": 6333, "▁Sae": 6334, "eratis": 6335, "▁color": 6336, "▁Deinde": 6337, "▁conser": 6338, "▁epistula": 6339, "▁intellegi": 6340, "▁Py": 6341, "TICO": 6342, "▁sarc": 6343, "▁viae": 6344, "▁inque": 6345, "▁Sagunt": 6346, "▁crimina": 6347, "▁consulatu": 6348, "▁militaris": 6349, "▁imperatore": 6350, "▁apt": 6351, "▁ambigu": 6352, "▁quaerit": 6353, "▁elephant": 6354, "▁supervac": 6355, "▁transfug": 6356, "▁perpetuum": 6357, "▁Cle": 6358, "▁Gab": 6359, "▁Ruf": 6360, "▁leu": 6361, "toris": 6362, "▁Nept": 6363, "▁rump": 6364, "▁artic": 6365, "▁cacum": 6366, "tatibus": 6367, "▁discess": 6368, "▁dominum": 6369, "▁age": 6370, "▁vap": 6371, "itato": 6372, "▁fate": 6373, "antius": 6374, "▁sapiens": 6375, "▁proeliis": 6376, "▁potuisset": 6377, "▁propositum": 6378, "▁Col": 6379, "▁dea": 6380, "▁Verr": 6381, "▁viti": 6382, "abilia": 6383, "▁herba": 6384, "▁murum": 6385, "▁recta": 6386, "▁urbium": 6387, "▁velint": 6388, "▁adiecit": 6389, "▁coniung": 6390, "▁Un": 6391, "▁Gra": 6392, "▁anx": 6393, "▁exul": 6394, "▁fame": 6395, "averis": 6396, "iamque": 6397, "▁atrox": 6398, "▁liquam": 6399, "▁solebat": 6400, "▁occurrit": 6401, "▁promuntur": 6402, "▁adsu": 6403, "ularum": 6404, "▁clari": 6405, "▁credid": 6406, "▁resist": 6407, "▁graviter": 6408, "▁iniuriae": 6409, "▁parentis": 6410, "▁z": 6411, "▁proi": 6412, "▁indig": 6413, "▁generi": 6414, "▁trucid": 6415, "▁quandam": 6416, "▁consuetudine": 6417, "▁Hort": 6418, "▁ferox": 6419, "▁lustr": 6420, "▁amicus": 6421, "▁commov": 6422, "▁manere": 6423, "▁possim": 6424, "▁tabern": 6425, "▁dedisse": 6426, "▁quindecim": 6427, "VIII": 6428, "▁adc": 6429, "▁ceu": 6430, "▁appet": 6431, "▁ipsae": 6432, "▁maxum": 6433, "▁cladis": 6434, "▁vetere": 6435, "▁Vitelli": 6436, "▁cognita": 6437, "▁complur": 6438, "▁linguae": 6439, "▁recuper": 6440, "▁quaestio": 6441, "▁intercess": 6442, "▁nostrorum": 6443, "▁quacumque": 6444, "ram": 6445, "osus": 6446, "▁VII": 6447, "▁Vale": 6448, "▁vert": 6449, "▁conpl": 6450, "▁ATTICO": 6451, "▁Athenis": 6452, "▁Pompeium": 6453, "▁victores": 6454, "▁stationes": 6455, "▁hy": 6456, "idens": 6457, "tioni": 6458, "ulsus": 6459, "undam": 6460, "▁cibi": 6461, "▁pede": 6462, "▁somn": 6463, "▁aurea": 6464, "▁equum": 6465, "▁facis": 6466, "▁lasci": 6467, "ecisset": 6468, "▁meridi": 6469, "▁noctes": 6470, "▁propon": 6471, "▁puellae": 6472, "▁collegam": 6473, "▁superior": 6474, "▁exercitui": 6475, "▁intervallo": 6476, "yx": 6477, "▁Em": 6478, "▁ludi": 6479, "▁obst": 6480, "▁terg": 6481, "▁iudex": 6482, "▁Aristo": 6483, "▁thalam": 6484, "▁custodia": 6485, "▁magistro": 6486, "iph": 6487, "edem": 6488, "▁Perg": 6489, "▁peper": 6490, "▁divina": 6491, "▁faciem": 6492, "▁menses": 6493, "▁quarta": 6494, "▁confess": 6495, "▁scribis": 6496, "úm": 6497, "atic": 6498, "enso": 6499, "▁Hes": 6500, "▁Sid": 6501, "titiae": 6502, "▁Pelop": 6503, "▁cultu": 6504, "▁manet": 6505, "▁pingu": 6506, "▁cursum": 6507, "▁falsum": 6508, "▁fluctus": 6509, "▁imperia": 6510, "▁meritis": 6511, "▁videret": 6512, "▁societate": 6513, "orp": 6514, "picere": 6515, "▁agric": 6516, "▁Brutus": 6517, "▁adiunc": 6518, "▁dextro": 6519, "▁fauces": 6520, "▁utrique": 6521, "▁factam": 6522, "▁teneri": 6523, "▁vigili": 6524, "▁Horatius": 6525, "▁nominibus": 6526, "edo": 6527, "▁Ga": 6528, "frag": 6529, "▁irr": 6530, "▁pau": 6531, "▁angu": 6532, "▁mense": 6533, "▁novem": 6534, "▁Augusti": 6535, "▁leniter": 6536, "▁adfectus": 6537, "▁praetoris": 6538, ".,": 6539, "agi": 6540, "▁Argum": 6541, "▁istud": 6542, "▁solem": 6543, "▁poenae": 6544, "▁vestro": 6545, "▁creatus": 6546, "▁quaeris": 6547, "▁sceleris": 6548, "▁Alexander": 6549, "▁accipiunt": 6550, "eric": 6551, "▁Dei": 6552, "▁cave": 6553, "▁fric": 6554, "▁line": 6555, "▁uell": 6556, "▁dabit": 6557, "▁puero": 6558, "▁pariet": 6559, "▁siquidem": 6560, "▁Vic": 6561, "ioque": 6562, "▁adol": 6563, "▁Liber": 6564, "▁dabat": 6565, "ilitate": 6566, "▁conleg": 6567, "▁darent": 6568, "▁gestis": 6569, "▁miserum": 6570, "▁cognomen": 6571, "▁honoribus": 6572, "▁multiplic": 6573, "▁pi": 6574, "etam": 6575, "▁Tit": 6576, "atori": 6577, "▁moveri": 6578, "▁redeunt": 6579, "▁laetitia": 6580, "aev": 6581, "etque": 6582, "▁Plat": 6583, "▁fini": 6584, "▁trit": 6585, "▁aditus": 6586, "▁eamque": 6587, "▁sepulc": 6588, "▁agendum": 6589, "▁invenit": 6590, "▁patefac": 6591, "▁constituit": 6592, "ibat": 6593, "ittam": 6594, "▁Coll": 6595, "▁dicto": 6596, "▁dominus": 6597, "▁dederunt": 6598, "▁privatim": 6599, "▁ta": 6600, "depol": 6601, "▁atton": 6602, "▁altius": 6603, "▁coegit": 6604, "▁humani": 6605, "▁armatis": 6606, "▁ministr": 6607, "ituit": 6608, "▁adest": 6609, "▁datis": 6610, "▁remig": 6611, "▁telum": 6612, "▁flamma": 6613, "▁latius": 6614, "▁contraria": 6615, "erni": 6616, "▁Had": 6617, "▁heb": 6618, "▁noll": 6619, "▁sale": 6620, "▁abire": 6621, "▁subit": 6622, "insecus": 6623, "▁abesse": 6624, "▁exhaus": 6625, "▁stimul": 6626, "▁carmine": 6627, "▁fierent": 6628, "▁iuvenem": 6629, "▁interpos": 6630, "ca": 6631, "▁Cy": 6632, "▁Sub": 6633, "▁laur": 6634, "▁Capit": 6635, "▁glori": 6636, "▁Igitur": 6637, "▁confit": 6638, "▁alioqui": 6639, "▁septent": 6640, "▁tristis": 6641, "▁particip": 6642, "▁utramque": 6643, "arias": 6644, "entam": 6645, "▁Acha": 6646, "▁Iovem": 6647, "▁famae": 6648, "▁poeta": 6649, "▁puella": 6650, "▁ventis": 6651, "▁compreh": 6652, "▁propere": 6653, "▁Ev": 6654, "▁da": 6655, "osis": 6656, "▁hil": 6657, "▁pir": 6658, "▁pler": 6659, "risque": 6660, "▁servi": 6661, "▁declam": 6662, "▁dilectum": 6663, "▁Vergilius": 6664, "▁coeperunt": 6665, "▁superstit": 6666, "▁quaestionem": 6667, "UM": 6668, "▁W": 6669, "▁Nos": 6670, "▁foc": 6671, "▁evas": 6672, "verunt": 6673, "▁forti": 6674, "▁soror": 6675, "▁exitum": 6676, "▁facias": 6677, "itudines": 6678, "▁ingredi": 6679, "▁partium": 6680, "▁penates": 6681, "▁superest": 6682, "▁certamina": 6683, "rex": 6684, "lico": 6685, "▁Tim": 6686, "aturi": 6687, "errima": 6688, "▁Delph": 6689, "▁colla": 6690, "▁litus": 6691, "▁totus": 6692, "ulisper": 6693, "▁Crassus": 6694, "▁dixerat": 6695, "▁numeros": 6696, "▁similiter": 6697, "▁quaecumque": 6698, "▁SI": 6699, "▁acer": 6700, "ittunt": 6701, "▁nasci": 6702, "▁requi": 6703, "▁stati": 6704, "▁fratri": 6705, "▁profug": 6706, "▁semine": 6707, "▁subduc": 6708, "▁variet": 6709, "▁recipit": 6710, "▁grave": 6711, "oremque": 6712, "▁Neptun": 6713, "▁caedis": 6714, "▁inquis": 6715, "▁terrib": 6716, "▁reliquis": 6717, "erito": 6718, "▁odor": 6719, "▁phal": 6720, "▁antec": 6721, "▁culpam": 6722, "▁deport": 6723, "▁decreto": 6724, "▁militari": 6725, "▁difficile": 6726, "rat": 6727, "▁Theb": 6728, "▁gemm": 6729, "▁tune": 6730, "▁passi": 6731, "▁succed": 6732, "▁sustinere": 6733, "▁sermonibus": 6734, "TO": 6735, "▁Ves": 6736, "▁Locr": 6737, "▁Sunt": 6738, "▁scis": 6739, "▁ageret": 6740, "▁frigida": 6741, "▁vertice": 6742, "▁Sardiniam": 6743, "▁certaminis": 6744, "▁condicione": 6745, "amph": 6746, "ileg": 6747, "▁Vols": 6748, "▁gerere": 6749, "▁rebell": 6750, "endumque": 6751, "▁incidit": 6752, "▁persuas": 6753, "▁cicatric": 6754, "▁Servilius": 6755, "▁Terentius": 6756, "emum": 6757, "▁fui": 6758, "▁Cati": 6759, "▁Hisp": 6760, "▁Vest": 6761, "▁clara": 6762, "▁fores": 6763, "▁ictum": 6764, "▁nobiles": 6765, "▁vestrae": 6766, "▁iudiciis": 6767, "▁sermonis": 6768, "▁necessitate": 6769, "taur": 6770, "estius": 6771, "▁exhib": 6772, "▁calida": 6773, "▁dissol": 6774, "▁permix": 6775, "▁rhetor": 6776, "▁uolunt": 6777, "▁membris": 6778, "erebantur": 6779, "issimorum": 6780, "▁fortiter": 6781, "lica": 6782, "orqu": 6783, "ugur": 6784, "▁Ual": 6785, "iuers": 6786, "lorum": 6787, "▁apos": 6788, "▁adsum": 6789, "▁brach": 6790, "▁dispon": 6791, "▁summae": 6792, "▁suscip": 6793, "▁variis": 6794, "▁Ligures": 6795, "▁nostras": 6796, "▁animalia": 6797, "▁frequent": 6798, "anta": 6799, "picit": 6800, "▁Iuno": 6801, "▁carn": 6802, "▁aesti": 6803, "▁assid": 6804, "▁furor": 6805, "ilitatem": 6806, "▁liberat": 6807, "ria": 6808, "ticam": 6809, "▁haes": 6810, "▁oner": 6811, "▁iacet": 6812, "▁pedem": 6813, "▁sever": 6814, "▁dignus": 6815, "▁aequora": 6816, "▁Argument": 6817, "▁lacrimae": 6818, "imul": 6819, "utio": 6820, "▁ian": 6821, "▁deae": 6822, "▁iras": 6823, "ecerat": 6824, "errime": 6825, "▁imago": 6826, "▁prisc": 6827, "averint": 6828, "itteret": 6829, "▁debell": 6830, "▁extrah": 6831, "▁videor": 6832, "▁aequore": 6833, "▁persona": 6834, "▁Antiochi": 6835, "▁egressus": 6836, "▁Syracusas": 6837, "▁vulneribus": 6838, "▁spectaculum": 6839, "▁multitudinis": 6840, "anius": 6841, "▁Idem": 6842, "▁muri": 6843, "▁exced": 6844, "▁depreh": 6845, "▁veluti": 6846, "▁regionis": 6847, "▁paulisper": 6848, "ogn": 6849, "aniae": 6850, "iamus": 6851, "▁irac": 6852, "▁sede": 6853, "▁Octav": 6854, "▁praev": 6855, "▁aperte": 6856, "▁primos": 6857, "▁vestri": 6858, "▁agerent": 6859, "▁foedera": 6860, "▁conspectum": 6861, "▁dignitatis": 6862, "ON": 6863, "imis": 6864, "▁fix": 6865, "ituri": 6866, "▁lata": 6867, "▁luna": 6868, "▁pand": 6869, "▁uide": 6870, "▁putes": 6871, "▁septu": 6872, "▁brevis": 6873, "▁servos": 6874, "▁Plinius": 6875, "▁habemus": 6876, "▁haudquaquam": 6877, "enu": 6878, "sic": 6879, "▁Leon": 6880, "▁aede": 6881, "▁aquil": 6882, "▁lucis": 6883, "▁eventu": 6884, "▁comites": 6885, "▁plurimis": 6886, "▁scientia": 6887, "▁Atr": 6888, "▁aves": 6889, "▁stab": 6890, "▁campum": 6891, "▁exclam": 6892, "▁incertum": 6893, "do": 6894, "hing": 6895, "ulci": 6896, "▁laus": 6897, "▁alvum": 6898, "▁ferat": 6899, "▁sensu": 6900, "amentis": 6901, "▁impedi": 6902, "▁laetus": 6903, "▁deliber": 6904, "▁meminisse": 6905, "RM": 6906, "▁crem": 6907, "▁legi": 6908, "▁plum": 6909, "aturae": 6910, "icitur": 6911, "▁aestu": 6912, "▁eumque": 6913, "▁ferret": 6914, "▁nuntio": 6915, "▁saltus": 6916, "▁Caesari": 6917, "▁Fortuna": 6918, "▁cornibus": 6919, "▁relictum": 6920, "▁Quinctium": 6921, "▁sententiis": 6922, "istr": 6923, "usci": 6924, "▁quum": 6925, "itores": 6926, "▁cyath": 6927, "▁attoll": 6928, "▁excess": 6929, "▁futuri": 6930, "▁pluris": 6931, "▁reddidit": 6932, "▁virtutes": 6933, "▁cupiditate": 6934, "▁diligentia": 6935, "YR": 6936, "ave": 6937, "oria": 6938, "▁Clod": 6939, "▁citra": 6940, "▁hasta": 6941, "▁spern": 6942, "▁captis": 6943, "▁modico": 6944, "▁triduum": 6945, "▁af": 6946, "▁Ant": 6947, "▁Vel": 6948, "▁Ipse": 6949, "▁exac": 6950, "▁igne": 6951, "▁tell": 6952, "iisque": 6953, "▁clipe": 6954, "▁libet": 6955, "▁gessit": 6956, "▁gratum": 6957, "▁pergit": 6958, "▁coeptum": 6959, "▁honesta": 6960, "▁auxiliis": 6961, "▁continuo": 6962, "▁Me": 6963, "usta": 6964, "ynth": 6965, "itius": 6966, "▁Bene": 6967, "▁imbr": 6968, "▁pulv": 6969, "▁abiit": 6970, "▁meret": 6971, "▁redim": 6972, "▁victi": 6973, "▁dicens": 6974, "▁medios": 6975, "▁doloris": 6976, "▁incipit": 6977, "▁vincula": 6978, "▁dictatore": 6979, "▁argumentum": 6980, "▁Cili": 6981, "iceret": 6982, "▁exaud": 6983, "▁hieme": 6984, "▁iusto": 6985, "▁venti": 6986, "▁Aeneae": 6987, "▁pietas": 6988, "▁fortuit": 6989, "▁proxime": 6990, "▁aera": 6991, "uitque": 6992, "▁spons": 6993, "▁convic": 6994, "▁securi": 6995, "▁prosequ": 6996, "▁Pic": 6997, "acium": 6998, "▁Thes": 6999, "▁caro": 7000, "antiae": 7001, "▁deced": 7002, "▁diduc": 7003, "▁parat": 7004, "▁filiae": 7005, "▁multae": 7006, "▁optima": 7007, "▁pueris": 7008, "▁testes": 7009, "▁veterem": 7010, "▁eloquentiae": 7011, "▁Eu": 7012, "uunt": 7013, "▁heu": 7014, "▁ost": 7015, "▁trab": 7016, "▁adiut": 7017, "▁donis": 7018, "▁incus": 7019, "▁lacus": 7020, "▁Sallus": 7021, "▁aspera": 7022, "▁fluctu": 7023, "▁operae": 7024, "▁pondus": 7025, "▁qualem": 7026, "▁daretur": 7027, "▁duceret": 7028, "▁minores": 7029, "▁veterum": 7030, "▁secundis": 7031, "enem": 7032, "▁evad": 7033, "▁illae": 7034, "▁patet": 7035, "▁adsign": 7036, "▁edicto": 7037, "▁formae": 7038, "▁facilis": 7039, "▁naufrag": 7040, "▁quartum": 7041, "▁posterum": 7042, "▁prodigia": 7043, "▁nonnumquam": 7044, "abas": 7045, "▁Was": 7046, "iaque": 7047, "▁amis": 7048, "antque": 7049, "atoque": 7050, "aturam": 7051, "▁digit": 7052, "▁legio": 7053, "▁putet": 7054, "▁longis": 7055, "▁regiae": 7056, "▁Brundis": 7057, "▁negotio": 7058, "▁spiritu": 7059, "▁Gracchus": 7060, "▁licentia": 7061, "▁singulas": 7062, "▁mentionem": 7063, "▁septentri": 7064, "▁agg": 7065, "▁mob": 7066, "illis": 7067, "▁pens": 7068, "▁obliv": 7069, "▁opper": 7070, "▁excipi": 7071, "▁laudes": 7072, "▁silvis": 7073, "▁Washing": 7074, "▁egregie": 7075, "▁incerta": 7076, "▁inermes": 7077, "▁instaur": 7078, "▁propugn": 7079, "▁oratores": 7080, "▁praestat": 7081, "▁spiritum": 7082, "▁universa": 7083, "▁populorum": 7084, "▁quodcumque": 7085, "sed": 7086, "vos": 7087, "▁Eup": 7088, "▁muc": 7089, "▁squ": 7090, "▁excid": 7091, "▁harus": 7092, "▁nymph": 7093, "▁parta": 7094, "▁obsess": 7095, "▁perinde": 7096, "▁reprehend": 7097, "▁Carthagine": 7098, "vm": 7099, "▁Tra": 7100, "▁Dion": 7101, "▁esto": 7102, "▁bienn": 7103, "▁impud": 7104, "▁stern": 7105, "▁totis": 7106, "▁radice": 7107, "▁colloqu": 7108, "▁minimum": 7109, "▁iniurias": 7110, "▁Washington": 7111, "▁consuetudinem": 7112, "▁Nero": 7113, "▁alti": 7114, "▁peru": 7115, "▁summi": 7116, "▁graves": 7117, "▁vocari": 7118, "▁ingenia": 7119, "▁prioris": 7120, "▁PH": 7121, "tuli": 7122, "▁Prop": 7123, "▁pull": 7124, "ecisse": 7125, "▁aeger": 7126, "▁radix": 7127, "▁copiam": 7128, "▁inveni": 7129, "▁timore": 7130, "▁Graecorum": 7131, "▁arboribus": 7132, "??": 7133, "▁Sat": 7134, "▁rar": 7135, "▁fera": 7136, "▁sanct": 7137, "▁delici": 7138, "▁missum": 7139, "▁digitis": 7140, "▁utuntur": 7141, "▁apparatu": 7142, "▁abh": 7143, "▁call": 7144, "▁eris": 7145, "erente": 7146, "▁Acarn": 7147, "▁adire": 7148, "▁canis": 7149, "▁moram": 7150, "▁uenit": 7151, "▁vocis": 7152, "▁capess": 7153, "▁quarto": 7154, "▁equestr": 7155, "▁feminae": 7156, "▁integra": 7157, "▁sinistra": 7158, "▁instituit": 7159, "▁propterea": 7160, "▁prudentia": 7161, "ubo": 7162, "irum": 7163, "erato": 7164, "▁incl": 7165, "▁inqui": 7166, "▁pecud": 7167, "▁senem": 7168, "▁candid": 7169, "▁praetex": 7170, "▁scribit": 7171, "▁rettulit": 7172, "▁quocumque": 7173, "omed": 7174, "▁Can": 7175, "▁bina": 7176, "▁flect": 7177, "▁sparg": 7178, "▁effici": 7179, "▁turbam": 7180, "▁adgredi": 7181, "▁crebris": 7182, "▁sacerdo": 7183, "▁scripsi": 7184, "▁Ea": 7185, "▁pan": 7186, "▁clav": 7187, "▁fors": 7188, "▁casum": 7189, "▁grata": 7190, "▁perag": 7191, "▁accers": 7192, "▁campis": 7193, "▁febris": 7194, "▁gravius": 7195, "▁volumus": 7196, "▁Augustus": 7197, "▁ordinibus": 7198, "▁profectum": 7199, "▁coeg": 7200, "uxerunt": 7201, "▁Aureli": 7202, "▁accend": 7203, "▁crimin": 7204, "▁efficit": 7205, "▁ignibus": 7206, "▁arbitrio": 7207, "▁contempl": 7208, "▁eloquentia": 7209, "ala": 7210, "des": 7211, "ilus": 7212, "utos": 7213, "▁ton": 7214, "▁Drus": 7215, "▁negl": 7216, "▁taur": 7217, "▁ulli": 7218, "▁isque": 7219, "▁motum": 7220, "▁remis": 7221, "▁vento": 7222, "▁acrius": 7223, "▁accipit": 7224, "▁flammis": 7225, "▁uniuers": 7226, "▁indignum": 7227, "▁privatis": 7228, "▁venerant": 7229, "▁victorem": 7230, "▁appareret": 7231, "oem": 7232, "imach": 7233, "▁Hanc": 7234, "▁baud": 7235, "▁torp": 7236, "▁Dolab": 7237, "▁cinis": 7238, "▁docet": 7239, "▁gaudia": 7240, "▁morbus": 7241, "▁patric": 7242, "▁record": 7243, "▁efficac": 7244, "▁mediocr": 7245, "▁mercede": 7246, "▁religio": 7247, "▁Tarentum": 7248, "▁sermonem": 7249, "▁venissent": 7250, "ou": 7251, "▁corr": 7252, "▁dabo": 7253, "▁dant": 7254, "▁effig": 7255, "▁lumen": 7256, "▁malle": 7257, "▁gaudium": 7258, "▁reditum": 7259, "▁desiderat": 7260, "cr": 7261, "▁immol": 7262, "▁octog": 7263, "▁uitae": 7264, "▁Appius": 7265, "▁interi": 7266, "▁corpori": 7267, "▁Aristote": 7268, "▁responde": 7269, "▁celeritate": 7270, "ilvs": 7271, "▁Acc": 7272, "▁mag": 7273, "▁Boeo": 7274, "▁Atham": 7275, "▁dives": 7276, "▁luctu": 7277, "▁praep": 7278, "▁expedi": 7279, "▁hiemem": 7280, "▁iussis": 7281, "▁equorum": 7282, "▁Sardinia": 7283, "▁misericordia": 7284, "iol": 7285, "till": 7286, "sibus": 7287, "▁Sull": 7288, "▁amat": 7289, "▁disi": 7290, "itorem": 7291, "▁cumul": 7292, "▁dictu": 7293, "▁pudet": 7294, "▁animae": 7295, "▁filios": 7296, "▁sensum": 7297, "▁infelic": 7298, "▁continet": 7299, "▁viderentur": 7300, "ian": 7301, "▁crep": 7302, "▁Armen": 7303, "▁cohib": 7304, "▁laeti": 7305, "▁faciet": 7306, "▁incurs": 7307, "▁locupl": 7308, "▁subita": 7309, "▁dederat": 7310, "ér": 7311, "▁Eo": 7312, "▁Capua": 7313, "▁Super": 7314, "▁cibus": 7315, "▁dudum": 7316, "▁feras": 7317, "▁recit": 7318, "▁repon": 7319, "▁medioc": 7320, "▁opinio": 7321, "▁quaeri": 7322, "▁quaero": 7323, "▁Graecos": 7324, "▁deserta": 7325, "▁circumst": 7326, "▁indicium": 7327, "▁praefecto": 7328, "ám": 7329, "cius": 7330, "▁Sev": 7331, "▁cos": 7332, "onnes": 7333, "▁Immo": 7334, "▁eunt": 7335, "▁invic": 7336, "abuntur": 7337, "icumque": 7338, "▁Minuci": 7339, "▁effund": 7340, "▁circuit": 7341, "▁Palaestr": 7342, "cis": 7343, "esb": 7344, "ycl": 7345, "unque": 7346, "▁siue": 7347, "▁falso": 7348, "▁flore": 7349, "▁sumps": 7350, "▁captae": 7351, "▁mitter": 7352, "▁patron": 7353, "▁reddit": 7354, "▁maximam": 7355, "▁accidere": 7356, "▁tradidit": 7357, "▁transvers": 7358, "▁hir": 7359, "▁vov": 7360, "▁Arch": 7361, "▁scalp": 7362, "▁vitis": 7363, "itusque": 7364, "▁gladio": 7365, "▁vesper": 7366, "▁corrump": 7367, "▁maioris": 7368, "▁nuntium": 7369, "▁priores": 7370, "▁loquitur": 7371, "▁potestatis": 7372, "▁quinquerem": 7373, "▁medicamentis": 7374, "▁arva": 7375, "▁volv": 7376, "▁atqui": 7377, "▁experi": 7378, "▁incipi": 7379, "▁pulchr": 7380, "▁facienda": 7381, "▁potuerit": 7382, "▁sapientia": 7383, "▁dictatoris": 7384, "mi": 7385, "erno": 7386, "elici": 7387, "▁umor": 7388, "uxerat": 7389, "▁Quare": 7390, "atosque": 7391, "▁captam": 7392, "▁concup": 7393, "▁fecere": 7394, "▁plebei": 7395, "▁vellem": 7396, "▁ferrent": 7397, "▁tenebat": 7398, "▁aerarium": 7399, "▁custodiam": 7400, "▁contrarium": 7401, "hel": 7402, "ciam": 7403, "illo": 7404, "▁Pse": 7405, "▁gut": 7406, "ensio": 7407, "entae": 7408, "indic": 7409, "▁Proc": 7410, "▁caer": 7411, "▁cruc": 7412, "▁vivo": 7413, "ensque": 7414, "▁aedis": 7415, "▁cedere": 7416, "▁extend": 7417, "▁umbras": 7418, "▁Valerio": 7419, "▁descrip": 7420, "▁principium": 7421, "oso": 7422, "▁fa": 7423, "▁Mel": 7424, "▁Mem": 7425, "▁sib": 7426, "ilior": 7427, "▁iugo": 7428, "▁cadit": 7429, "▁consis": 7430, "▁legato": 7431, "▁morbis": 7432, "▁ponere": 7433, "▁regium": 7434, "▁victum": 7435, "▁distrib": 7436, "▁minorem": 7437, "▁Lysimach": 7438, "▁tribunum": 7439, "▁Cornelium": 7440, "▁Macedones": 7441, "▁oppugnare": 7442, "hac": 7443, "▁XL": 7444, "opol": 7445, "ectio": 7446, "▁calig": 7447, "▁defin": 7448, "▁horde": 7449, "▁exclus": 7450, "▁gradus": 7451, "▁iuvenum": 7452, "▁efficere": 7453, "▁opinione": 7454, "▁liberorum": 7455, "plas": 7456, "▁Nol": 7457, "▁sod": 7458, "▁Circ": 7459, "▁Hunc": 7460, "▁Plac": 7461, "urrunt": 7462, "▁cutis": 7463, "▁intel": 7464, "▁sester": 7465, "▁singuli": 7466, "▁potuerunt": 7467, "ulem": 7468, "▁DEM": 7469, "ander": 7470, "▁glut": 7471, "▁rite": 7472, "▁exitu": 7473, "▁nosse": 7474, "▁sinum": 7475, "▁Iamque": 7476, "▁egress": 7477, "▁exprob": 7478, "▁octing": 7479, "▁omissa": 7480, "▁quales": 7481, "▁radices": 7482, "▁frumento": 7483, "▁mulierum": 7484, "▁pertinac": 7485, "▁Palaestrio": 7486, "▁voluntatem": 7487, "▁conscientia": 7488, "EA": 7489, "licis": 7490, "▁Arab": 7491, "▁balne": 7492, "▁besti": 7493, "▁iuuen": 7494, "itatium": 7495, "▁aiebat": 7496, "▁confer": 7497, "▁corrip": 7498, "▁mellis": 7499, "▁nuncup": 7500, "▁sicuti": 7501, "▁maximis": 7502, "▁senator": 7503, "▁vocibus": 7504, "▁dedisset": 7505, "▁defendere": 7506, "▁ostendere": 7507, "▁proconsul": 7508, "▁Macedoniae": 7509, "▁frequentes": 7510, "aca": 7511, "ubi": 7512, "usus": 7513, "tenus": 7514, "icorum": 7515, "▁Alpes": 7516, "▁facie": 7517, "▁inlin": 7518, "▁Campani": 7519, "▁vincere": 7520, "▁Antonium": 7521, "▁Etruriam": 7522, "▁adversum": 7523, "▁immortales": 7524, "▁maer": 7525, "▁Uolsc": 7526, "▁obici": 7527, "▁Capuae": 7528, "▁templi": 7529, "▁tuorum": 7530, "▁Iunonis": 7531, "▁absente": 7532, "▁montium": 7533, "▁sacrorum": 7534, "▁traiecit": 7535, "▁La": 7536, "aeus": 7537, "erer": 7538, "▁sesc": 7539, "▁ueni": 7540, "▁infer": 7541, "▁releg": 7542, "▁stric": 7543, "▁uirum": 7544, "▁Martis": 7545, "▁classi": 7546, "▁humano": 7547, "▁largit": 7548, "▁operum": 7549, "▁secess": 7550, "▁generum": 7551, "▁tyranno": 7552, "▁cognomin": 7553, "▁Achaeorum": 7554, "▁Vt": 7555, "etra": 7556, "invs": 7557, "orium": 7558, "▁mers": 7559, "eritas": 7560, "▁anima": 7561, "▁saeva": 7562, "▁veter": 7563, "errimum": 7564, "▁errore": 7565, "▁meorum": 7566, "▁integrum": 7567, "▁opinionem": 7568, "osth": 7569, "▁Res": 7570, "▁Sel": 7571, "▁prav": 7572, "▁sali": 7573, "▁sulc": 7574, "▁incub": 7575, "▁robur": 7576, "▁Pergam": 7577, "▁Pythag": 7578, "▁amoris": 7579, "▁diutur": 7580, "▁mentes": 7581, "▁movere": 7582, "▁perman": 7583, "▁arbores": 7584, "▁Scipioni": 7585, "▁na": 7586, "ocin": 7587, "onii": 7588, "estem": 7589, "▁anci": 7590, "▁amico": 7591, "▁docum": 7592, "▁aderat": 7593, "▁implic": 7594, "▁petunt": 7595, "▁vereor": 7596, "▁dimisit": 7597, "▁generos": 7598, "▁quasdam": 7599, "▁tertiam": 7600, "▁veniret": 7601, "▁legionem": 7602, "▁proximis": 7603, "▁ó": 7604, "▁lig": 7605, "aster": 7606, "▁mira": 7607, "▁mole": 7608, "▁saxo": 7609, "▁extor": 7610, "▁Pompon": 7611, "▁gestas": 7612, "▁pugnare": 7613, "▁iusserunt": 7614, "▁periculis": 7615, "YRUS": 7616, "▁Mus": 7617, "▁ung": 7618, "pecta": 7619, "▁otio": 7620, "ilitas": 7621, "▁linte": 7622, "▁loquor": 7623, "▁lumine": 7624, "▁colorem": 7625, "▁quietem": 7626, "▁comminus": 7627, "▁consenti": 7628, "▁propinquo": 7629, "▁videbantur": 7630, "itto": 7631, "▁Nas": 7632, "▁tri": 7633, "oniis": 7634, "ortum": 7635, "▁ejus": 7636, "▁fiet": 7637, "▁leni": 7638, "istunt": 7639, "▁incess": 7640, "▁possem": 7641, "▁liberal": 7642, "▁Minucius": 7643, "▁breviter": 7644, "▁celerius": 7645, "▁communem": 7646, "▁copiarum": 7647, "▁experiri": 7648, "▁regionem": 7649, "▁constitit": 7650, "▁mou": 7651, "▁myr": 7652, "▁sul": 7653, "▁Quia": 7654, "▁natu": 7655, "▁potu": 7656, "▁aemul": 7657, "▁dicas": 7658, "▁error": 7659, "▁inest": 7660, "▁inmin": 7661, "▁sucus": 7662, "▁Claudi": 7663, "▁aperta": 7664, "▁quanti": 7665, "▁audivit": 7666, "▁condita": 7667, "▁contigit": 7668, "▁faciebat": 7669, "▁generibus": 7670, "▁quicumque": 7671, "eru": 7672, "ages": 7673, "nium": 7674, "tili": 7675, "▁Ori": 7676, "▁donum": 7677, "▁mixta": 7678, "▁partic": 7679, "▁genitor": 7680, "▁Marcellum": 7681, "▁aliquamdiu": 7682, "▁regionibus": 7683, "▁stationibus": 7684, "▁3": 7685, "▁ib": 7686, "▁Oth": 7687, "▁ludis": 7688, "▁novam": 7689, "▁numer": 7690, "▁Iulius": 7691, "▁iubent": 7692, "▁perque": 7693, "▁regiis": 7694, "▁tradita": 7695, "▁perpetua": 7696, "▁familiaris": 7697, "met": 7698, "alvs": 7699, "▁Sep": 7700, "▁Sum": 7701, "▁mic": 7702, "▁eram": 7703, "▁scit": 7704, "▁tric": 7705, "andrum": 7706, "▁cenam": 7707, "▁prael": 7708, "▁gravem": 7709, "▁mancip": 7710, "▁acceptis": 7711, "▁communia": 7712, "▁facillim": 7713, "▁sacerdos": 7714, "▁sacrileg": 7715, "▁habuisset": 7716, "▁superioribus": 7717, "tima": 7718, "▁Ang": 7719, "▁ueh": 7720, "▁Eubo": 7721, "▁Herm": 7722, "▁demp": 7723, "▁uirg": 7724, "▁vela": 7725, "▁Praen": 7726, "▁conqu": 7727, "▁iussa": 7728, "▁pecus": 7729, "▁citeri": 7730, "▁conpar": 7731, "▁fugere": 7732, "▁memini": 7733, "▁remiss": 7734, "▁futurus": 7735, "▁materiae": 7736, "▁prodesse": 7737, "▁spectare": 7738, "▁tyrannus": 7739, "OS": 7740, "ifer": 7741, "estig": 7742, "▁apta": 7743, "▁cusp": 7744, "▁arbit": 7745, "▁comit": 7746, "▁ignob": 7747, "▁minas": 7748, "▁misso": 7749, "▁anceps": 7750, "▁atting": 7751, "▁conpos": 7752, "▁magnos": 7753, "▁perfic": 7754, "▁Maximus": 7755, "▁primores": 7756, "▁principe": 7757, "▁voluntas": 7758, "▁proficisci": 7759, ",”": 7760, "aco": 7761, "ring": 7762, "▁SYRUS": 7763, "▁delub": 7764, "▁novus": 7765, "▁simus": 7766, "▁arbore": 7767, "▁primae": 7768, "▁quinto": 7769, "▁Antonio": 7770, "▁Heracle": 7771, "▁occisus": 7772, "▁dilectus": 7773, "▁occidere": 7774, "▁statione": 7775, "▁Apollinis": 7776, "▁acciperet": 7777, "▁tantummodo": 7778, "ilii": 7779, "▁sinc": 7780, "▁Chrys": 7781, "▁corde": 7782, "▁reuoc": 7783, "▁saltu": 7784, "escente": 7785, "▁decess": 7786, "▁gurgit": 7787, "▁partus": 7788, "▁auxilii": 7789, "▁comment": 7790, "▁instrum": 7791, "▁leviter": 7792, "▁damnatus": 7793, "▁legionis": 7794, "▁tyrannum": 7795, "ossa": 7796, "▁arch": 7797, "▁Hadri": 7798, "▁Illud": 7799, "▁orare": 7800, "▁adsump": 7801, "▁potens": 7802, "▁ventos": 7803, "▁colonia": 7804, "▁distinc": 7805, "▁moratus": 7806, "▁officia": 7807, "▁referri": 7808, "▁sentire": 7809, "▁alicuius": 7810, "▁castella": 7811, "▁arbitrium": 7812, "▁perniciem": 7813, "▁prouincia": 7814, "▁Pla": 7815, "▁bub": 7816, "▁fiant": 7817, "▁inser": 7818, "▁Graece": 7819, "▁hospes": 7820, "▁pituit": 7821, "▁adverso": 7822, "▁ignarus": 7823, "▁praetere": 7824, "▁quanquam": 7825, "▁sustulit": 7826, "aer": 7827, "teg": 7828, "▁Illa": 7829, "iculis": 7830, "▁bonos": 7831, "▁dicet": 7832, "▁exire": 7833, "▁sorti": 7834, "▁squam": 7835, "▁uerum": 7836, "▁Americ": 7837, "▁illinc": 7838, "▁vertit": 7839, "▁Africae": 7840, "▁accepto": 7841, "▁itemque": 7842, "▁legatio": 7843, "▁quiddam": 7844, "▁civitatium": 7845, "▁progressus": 7846, "▁disciplinam": 7847, "?”": 7848, "▁ens": 7849, "▁omen": 7850, "escens": 7851, "▁oppon": 7852, "untibus": 7853, "▁custos": 7854, "▁edepol": 7855, "▁fabric": 7856, "▁Aemilio": 7857, "▁optimus": 7858, "▁decrevit": 7859, "▁discordia": 7860, "Qu": 7861, "mina": 7862, "▁oli": 7863, "tavit": 7864, "▁ausi": 7865, "aculis": 7866, "▁Torqu": 7867, "▁press": 7868, "▁Manlio": 7869, "▁aestus": 7870, "▁feminis": 7871, "▁saecula": 7872, "▁venenum": 7873, "▁monaster": 7874, "▁radicibus": 7875, "aech": 7876, "inoc": 7877, "▁Amb": 7878, "▁imo": 7879, "▁pil": 7880, "▁Inde": 7881, "▁uuln": 7882, "▁moles": 7883, "▁mundo": 7884, "▁stren": 7885, "▁funera": 7886, "▁medius": 7887, "▁portae": 7888, "▁utilis": 7889, "▁faciant": 7890, "▁inscrip": 7891, "▁marmore": 7892, "▁mortuus": 7893, "▁promulg": 7894, "▁mensibus": 7895, "amb": 7896, "fer": 7897, "▁Es": 7898, "▁Ham": 7899, "▁Ili": 7900, "▁neb": 7901, "untque": 7902, "uturum": 7903, "▁spero": 7904, "endique": 7905, "▁consed": 7906, "▁gradum": 7907, "▁necdum": 7908, "▁oritur": 7909, "▁secuta": 7910, "▁incepto": 7911, "▁pontifex": 7912, "▁auspiciis": 7913, "▁convenire": 7914, "▁centuriones": 7915, "IL": 7916, "rid": 7917, "▁aes": 7918, "▁pag": 7919, "plici": 7920, "▁cupi": 7921, "unquam": 7922, "▁lapid": 7923, "▁sauci": 7924, "endorum": 7925, "▁Dianae": 7926, "▁Illyri": 7927, "▁Tarrac": 7928, "▁amissa": 7929, "▁cultus": 7930, "▁laudis": 7931, "▁numine": 7932, "▁Aegypto": 7933, "▁arborum": 7934, "▁extremo": 7935, "▁insignem": 7936, "otae": 7937, "ppus": 7938, "▁rid": 7939, "allis": 7940, "neque": 7941, "▁inped": 7942, "▁voles": 7943, "▁Apollo": 7944, "▁perire": 7945, "▁utitur": 7946, "▁Capitol": 7947, "▁attinet": 7948, "▁inventa": 7949, "▁obsecro": 7950, "▁adventus": 7951, "▁viderunt": 7952, "▁quaestiones": 7953, "vl": 7954, "▁k": 7955, "▁deh": 7956, "▁van": 7957, "▁Marte": 7958, "▁arbor": 7959, "▁iidem": 7960, "▁innox": 7961, "▁matri": 7962, "▁commut": 7963, "▁confid": 7964, "▁fructu": 7965, "▁funere": 7966, "▁luctus": 7967, "▁parere": 7968, "▁tumulo": 7969, "▁argento": 7970, "▁veniunt": 7971, "▁Herculis": 7972, "▁iuventus": 7973, "▁supplicio": 7974, "▁supplicatio": 7975, ",\"": 7976, "▁Um": 7977, "adum": 7978, "quae": 7979, "▁Vid": 7980, "▁Cris": 7981, "▁Liby": 7982, "▁Long": 7983, "▁Seru": 7984, "▁Unde": 7985, "▁brum": 7986, "▁inca": 7987, "▁ritu": 7988, "▁uiol": 7989, "▁uiri": 7990, "▁Cuius": 7991, "▁conub": 7992, "▁novos": 7993, "▁cessit": 7994, "▁mulieb": 7995, "▁veteris": 7996, "▁diversis": 7997, "▁ornamenta": 7998, "▁defectionem": 7999, "▁immortalibus": 8000, "CI": 8001, "enen": 8002, "▁præ": 8003, "▁caud": 8004, "▁campi": 8005, "▁crede": 8006, "▁excel": 8007, "▁irasc": 8008, "▁operi": 8009, "▁vices": 8010, "▁callid": 8011, "▁censeo": 8012, "▁optimi": 8013, "▁plebes": 8014, "▁Menaech": 8015, "▁dederit": 8016, "▁insigne": 8017, "entissimum": 8018, "▁tempestas": 8019, "▁praesentis": 8020, "▁imperatorum": 8021, "▁iv": 8022, "▁Cui": 8023, "ectas": 8024, "▁olei": 8025, "ituper": 8026, "▁Omnia": 8027, "▁Pamph": 8028, "▁allig": 8029, "▁curis": 8030, "▁nempe": 8031, "▁reced": 8032, "▁victa": 8033, "▁ferens": 8034, "▁malign": 8035, "▁testud": 8036, "▁vulgus": 8037, "▁vestram": 8038, "▁universi": 8039, "▁militaria": 8040, "▁nascuntur": 8041, "▁restituit": 8042, "▁veteribus": 8043, "▁HS": 8044, "imen": 8045, "ivis": 8046, "▁Aci": 8047, "▁inep": 8048, "▁situ": 8049, "▁dulci": 8050, "▁saevi": 8051, "▁dedere": 8052, "▁increm": 8053, "▁mensis": 8054, "▁alienis": 8055, "▁frigore": 8056, "▁vocantur": 8057, "▁parentibus": 8058, "▁uim": 8059, "areat": 8060, "verat": 8061, "▁deis": 8062, "▁decor": 8063, "▁gramm": 8064, "▁votis": 8065, "▁capiti": 8066, "▁silvas": 8067, "▁transi": 8068, "▁Atilius": 8069, "▁Eumenes": 8070, "▁agrorum": 8071, "▁ferebat": 8072, "▁tumulum": 8073, "▁nuntiata": 8074, "▁Liguribus": 8075, "▁accepimus": 8076, "▁simulacra": 8077, "eque": 8078, "▁Dor": 8079, "▁Vbi": 8080, "▁deri": 8081, "▁suco": 8082, "▁novas": 8083, "▁Samnio": 8084, "▁diuers": 8085, "▁regina": 8086, "▁repper": 8087, "▁exilium": 8088, "▁exitium": 8089, "▁maritum": 8090, "▁praesto": 8091, "▁sperare": 8092, "▁beneficia": 8093, "▁sexaginta": 8094, "▁cohortibus": 8095, "▁consularis": 8096, "▁tib": 8097, "▁Sulla": 8098, "▁ruina": 8099, "▁Hispani": 8100, "▁dicatur": 8101, "▁exprobr": 8102, "▁futuram": 8103, "▁apparuit": 8104, "▁interemp": 8105, "▁officiis": 8106, "▁persever": 8107, "';": 8108, "uras": 8109, "▁Hac": 8110, "▁ima": 8111, "▁Euph": 8112, "▁Iove": 8113, "▁Phae": 8114, "▁dati": 8115, "▁febr": 8116, "▁sorb": 8117, "▁curas": 8118, "▁faces": 8119, "▁sciat": 8120, "eperant": 8121, "▁latron": 8122, "▁proper": 8123, "▁antiqui": 8124, "▁aquarum": 8125, "▁ferarum": 8126, "▁humanis": 8127, "▁accedere": 8128, "▁concursu": 8129, "▁itineris": 8130, "▁Latinorum": 8131, "▁concessit": 8132, "▁reliquias": 8133, "▁virtutibus": 8134, "▁supplementum": 8135, "ysi": 8136, "olas": 8137, "▁Ecc": 8138, "▁Item": 8139, "▁cibis": 8140, "▁manes": 8141, "▁adprob": 8142, "▁coloni": 8143, "▁egredi": 8144, "▁tenuis": 8145, "▁debemus": 8146, "▁frontem": 8147, "▁talibus": 8148, "▁Valerium": 8149, "▁quaestor": 8150, "▁terrestr": 8151, "▁utrisque": 8152, "▁epistulam": 8153, "▁desiderium": 8154, "ensos": 8155, "▁Baeb": 8156, "▁elem": 8157, "▁trop": 8158, "▁curru": 8159, "▁decep": 8160, "▁vates": 8161, "▁alieni": 8162, "▁aperto": 8163, "▁currus": 8164, "▁fabula": 8165, "▁gestum": 8166, "▁infund": 8167, "▁iustum": 8168, "▁recess": 8169, "▁sortem": 8170, "▁experim": 8171, "▁iniussu": 8172, "▁mittend": 8173, "▁priorem": 8174, "▁sedibus": 8175, "▁religionem": 8176, "RO": 8177, "pat": 8178, "rom": 8179, "truc": 8180, "▁kal": 8181, "▁set": 8182, "▁Amyn": 8183, "▁Pris": 8184, "▁Temp": 8185, "▁arat": 8186, "▁tent": 8187, "▁amare": 8188, "▁devic": 8189, "▁rever": 8190, "▁versa": 8191, "▁Iunius": 8192, "▁Punica": 8193, "▁ludibr": 8194, "▁Romulus": 8195, "▁iracund": 8196, "▁tanquam": 8197, "▁Camillus": 8198, "▁bracchia": 8199, "▁clamorem": 8200, "▁eodemque": 8201, "▁concordia": 8202, "▁magnitudo": 8203, "▁praefectum": 8204, "osp": 8205, "abar": 8206, "▁ade": 8207, "▁Mago": 8208, "▁inan": 8209, "▁sext": 8210, "▁Theop": 8211, "▁eidem": 8212, "▁maest": 8213, "▁saltum": 8214, "▁traici": 8215, "greditur": 8216, "▁ceterae": 8217, "▁eiusmodi": 8218, "▁geruntur": 8219, "▁fluctibus": 8220, "▁equitumque": 8221, "▁cali": 8222, "▁exulc": 8223, "▁morum": 8224, "▁rapit": 8225, "▁scorp": 8226, "▁Punico": 8227, "▁poetae": 8228, "▁quidnam": 8229, "▁solitum": 8230, "▁concitat": 8231, "▁insignia": 8232, "▁intellig": 8233, "▁medicina": 8234, "▁misericord": 8235, "acc": 8236, "ustum": 8237, "▁musc": 8238, "▁volg": 8239, "▁antis": 8240, "▁naues": 8241, "▁Helles": 8242, "▁auster": 8243, "▁cotidi": 8244, "▁implor": 8245, "▁attulit": 8246, "▁candida": 8247, "▁decocta": 8248, "▁persuad": 8249, "▁tertius": 8250, "▁viscera": 8251, "▁Lentulus": 8252, "▁superesse": 8253, "▁hem": 8254, "▁nex": 8255, "odorus": 8256, "▁avert": 8257, "▁sitis": 8258, "▁Fulvio": 8259, "▁certis": 8260, "▁parata": 8261, "▁reserv": 8262, "▁accedit": 8263, "▁servare": 8264, "▁peterent": 8265, "▁silvestr": 8266, "▁maiestatis": 8267, "▁sententias": 8268, "org": 8269, "ove": 8270, "yli": 8271, "edic": 8272, "▁tar": 8273, "▁Arist": 8274, "▁ductu": 8275, "▁foras": 8276, "▁parvo": 8277, "▁ripam": 8278, "▁semet": 8279, "▁senes": 8280, "▁teque": 8281, "▁cruore": 8282, "▁dentes": 8283, "▁quaque": 8284, "▁ceteras": 8285, "▁peteret": 8286, "▁roboris": 8287, "▁vidisse": 8288, "▁consider": 8289, "▁parentem": 8290, "▁similitudinem": 8291, "▁Mo": 8292, "▁Ur": 8293, "▁Rut": 8294, "ecill": 8295, "tionum": 8296, "▁inhib": 8297, "idisset": 8298, "▁ibique": 8299, "▁spatia": 8300, "▁innumer": 8301, "▁tollere": 8302, "▁vigilia": 8303, "▁acceptum": 8304, "▁causarum": 8305, "▁haruspic": 8306, "▁beneficiis": 8307, "▁Iud": 8308, "▁eat": 8309, "tatus": 8310, "▁exar": 8311, "▁mota": 8312, "▁scep": 8313, "escant": 8314, "▁Senec": 8315, "▁inced": 8316, "▁incho": 8317, "▁incit": 8318, "▁initia": 8319, "▁profit": 8320, "▁conclam": 8321, "▁hibernis": 8322, "▁proximus": 8323, "▁Ciceronis": 8324, "▁cognoscere": 8325, "tax": 8326, "osci": 8327, "▁Cim": 8328, "▁Arde": 8329, "▁dono": 8330, "▁Crisp": 8331, "▁Saepe": 8332, "▁aequa": 8333, "▁intol": 8334, "▁nemus": 8335, "▁cladem": 8336, "▁cognom": 8337, "▁merita": 8338, "▁patrim": 8339, "▁servis": 8340, "▁veniat": 8341, "▁Achaeis": 8342, "▁Tiberim": 8343, "▁insulae": 8344, "▁templis": 8345, "▁Marcello": 8346, "▁quingentos": 8347, "dol": 8348, "▁(5": 8349, "▁Aud": 8350, "▁Tir": 8351, "ulsis": 8352, "▁iret": 8353, "▁Poeni": 8354, "▁capto": 8355, "▁cutem": 8356, "▁strid": 8357, "▁adflic": 8358, "▁commis": 8359, "▁concub": 8360, "▁crebro": 8361, "▁deesse": 8362, "▁extinc": 8363, "▁timere": 8364, "▁Numidae": 8365, "▁dilectu": 8366, "▁pulvere": 8367, "▁septuaginta": 8368, "ís": 8369, "piam": 8370, "▁Mal": 8371, "▁Aesc": 8372, "▁Serg": 8373, "▁Varr": 8374, "▁aura": 8375, "▁peto": 8376, "ulibus": 8377, "▁abrog": 8378, "▁anhel": 8379, "▁adprop": 8380, "▁pudore": 8381, "▁solvit": 8382, "▁propior": 8383, "▁tabulis": 8384, "▁vituper": 8385, "▁appellat": 8386, "▁incendio": 8387, "▁mandatum": 8388, "▁fecissent": 8389, "▁voluptate": 8390, "▁Tarquinius": 8391, "▁necessario": 8392, "bri": 8393, "rio": 8394, "onam": 8395, "▁rapi": 8396, "▁siti": 8397, "▁sors": 8398, "▁Milph": 8399, "▁Veios": 8400, "▁aequi": 8401, "▁invis": 8402, "▁libri": 8403, "▁longae": 8404, "▁parvis": 8405, "▁triste": 8406, "antesque": 8407, "▁argente": 8408, "▁barbaris": 8409, "▁triumphi": 8410, "▁praecipua": 8411, "tag": 8412, "omet": 8413, "▁Pet": 8414, "idiam": 8415, "▁audio": 8416, "▁cereb": 8417, "▁mitig": 8418, "▁refic": 8419, "▁morbum": 8420, "▁sciret": 8421, "▁trahit": 8422, "▁barbari": 8423, "▁gladiis": 8424, "▁communic": 8425, "▁conspici": 8426, "▁ducentos": 8427, "▁eademque": 8428, "▁rationibus": 8429, "▁servitutem": 8430, "▁extrinsecus": 8431, "▁testimonium": 8432, "ixi": 8433, "▁cis": 8434, "▁cot": 8435, "ector": 8436, "ernum": 8437, "▁Sequ": 8438, "▁Spar": 8439, "▁rosa": 8440, "iderit": 8441, "▁salus": 8442, "▁mirari": 8443, "▁mundum": 8444, "▁sentit": 8445, "▁eventus": 8446, "▁momento": 8447, "▁pietate": 8448, "▁consedit": 8449, "▁iustitia": 8450, "▁magisque": 8451, "▁contendit": 8452, "▁intellego": 8453, "▁consuetudo": 8454, "ocl": 8455, "ullo": 8456, "▁cau": 8457, "ultate": 8458, "▁esses": 8459, "▁moris": 8460, "▁otios": 8461, "▁plaga": 8462, "▁creari": 8463, "▁frigus": 8464, "▁maximi": 8465, "▁victos": 8466, "▁antiqua": 8467, "▁dignitas": 8468, "▁praebuit": 8469, "▁proscrip": 8470, "▁Masinissa": 8471, "▁interesse": 8472, "▁sequuntur": 8473, "▁videlicet": 8474, "vas": 8475, "▁alte": 8476, "▁exit": 8477, "▁oras": 8478, "▁foeda": 8479, "▁volet": 8480, "issemus": 8481, "▁librum": 8482, "▁cervice": 8483, "▁iuberet": 8484, "▁quantam": 8485, "▁Demetria": 8486, "▁bellorum": 8487, "▁feliciter": 8488, "▁att": 8489, "▁Conc": 8490, "▁Mars": 8491, "▁mulc": 8492, "▁scab": 8493, "▁prout": 8494, "tulerit": 8495, "▁caeles": 8496, "▁docuit": 8497, "▁partit": 8498, "▁Demosth": 8499, "▁casibus": 8500, "▁quamuis": 8501, "▁septing": 8502, "▁spoliis": 8503, "▁captivis": 8504, "▁inventum": 8505, "▁longinqu": 8506, "▁progredi": 8507, "▁instructa": 8508, "▁quingenti": 8509, "▁condiciones": 8510, "▁Tub": 8511, "▁lan": 8512, "▁Agor": 8513, "▁Teuc": 8514, "▁cata": 8515, "iosius": 8516, "▁Hanno": 8517, "▁robus": 8518, "▁offens": 8519, "▁coronam": 8520, "▁licebit": 8521, "▁occasum": 8522, "▁recepta": 8523, "▁venerit": 8524, "▁commodum": 8525, "▁LX": 8526, "mata": 8527, "otam": 8528, "ppad": 8529, "▁Tel": 8530, "▁Xen": 8531, "atrix": 8532, "ullum": 8533, "▁Leuc": 8534, "▁desert": 8535, "▁facito": 8536, "▁pueros": 8537, "▁quonam": 8538, "▁ullius": 8539, "▁equitem": 8540, "▁quamque": 8541, "▁distingu": 8542, "▁interfic": 8543, "▁potentia": 8544, "▁octoginta": 8545, "▁fen": 8546, "otens": 8547, "▁marg": 8548, "▁ment": 8549, "▁mess": 8550, "▁ripa": 8551, "▁Bruto": 8552, "▁adpet": 8553, "▁facio": 8554, "▁pavor": 8555, "▁tales": 8556, "▁citius": 8557, "▁factae": 8558, "▁pavore": 8559, "▁remedia": 8560, "▁dimissis": 8561, "▁exemplis": 8562, "▁inimicum": 8563, "▁remedium": 8564, "▁versibus": 8565, "▁praestant": 8566, "▁stipendia": 8567, "rax": 8568, "▁Hy": 8569, "▁Pan": 8570, "▁der": 8571, "▁fax": 8572, "▁oro": 8573, "▁func": 8574, "▁accepi": 8575, "▁aequor": 8576, "▁biduum": 8577, "▁contig": 8578, "▁fiduci": 8579, "▁modice": 8580, "▁tenent": 8581, "▁Agorast": 8582, "▁edictum": 8583, "▁luxuria": 8584, "▁sororis": 8585, "▁Poenorum": 8586, "▁facultas": 8587, "▁interdiu": 8588, "▁Hellespon": 8589, "▁constabat": 8590, "▁scientiam": 8591, "▁senatores": 8592, "▁suffragium": 8593, "osi": 8594, "llam": 8595, "▁ear": 8596, "▁usi": 8597, "itans": 8598, "▁Neap": 8599, "▁cari": 8600, "▁insc": 8601, "▁nuda": 8602, "▁surc": 8603, "enarum": 8604, "enique": 8605, "▁lacum": 8606, "▁ridic": 8607, "▁Cappad": 8608, "▁eisdem": 8609, "▁subtil": 8610, "▁veneno": 8611, "▁confici": 8612, "▁occasio": 8613, "▁promisc": 8614, "▁suscipi": 8615, "▁procedit": 8616, "▁angustias": 8617, "▁elephanti": 8618, "▁superiores": 8619, "▁Athenienses": 8620, "AN": 8621, "AV": 8622, "usi": 8623, "▁visu": 8624, "▁famem": 8625, "▁invas": 8626, "▁iratus": 8627, "▁loquar": 8628, "▁profec": 8629, "▁prolap": 8630, "▁Ceterum": 8631, "▁errorem": 8632, "▁legione": 8633, "▁Papirius": 8634, "▁liquamen": 8635, "▁servorum": 8636, "▁cupiditas": 8637, "AT": 8638, "▁ova": 8639, "▁Form": 8640, "▁alis": 8641, "▁fest": 8642, "▁octa": 8643, "▁usui": 8644, "▁Alter": 8645, "▁uestr": 8646, "▁uxore": 8647, "▁Persea": 8648, "▁defuit": 8649, "▁edidit": 8650, "▁obstin": 8651, "▁refrig": 8652, "▁aliquos": 8653, "▁scelera": 8654, "▁uiribus": 8655, "▁Metellus": 8656, "▁conferre": 8657, "▁Chalcidem": 8658, "▁habiturum": 8659, "▁altitudinem": 8660, "▁nor": 8661, "▁Ecce": 8662, "▁Phoc": 8663, "▁char": 8664, "▁tram": 8665, "uistis": 8666, "▁improv": 8667, "▁stirpe": 8668, "▁coloris": 8669, "▁dextrum": 8670, "▁imagine": 8671, "▁memores": 8672, "▁audisset": 8673, "▁cladibus": 8674, "▁oratoris": 8675, "▁rationes": 8676, "▁Sallustius": 8677, "▁petentibus": 8678, "itii": 8679, "olos": 8680, "▁Heg": 8681, "eriam": 8682, "inata": 8683, "peret": 8684, "▁Calp": 8685, "▁Deus": 8686, "▁amar": 8687, "▁avid": 8688, "▁cinc": 8689, "▁detur": 8690, "▁fecund": 8691, "▁frustr": 8692, "▁Laelius": 8693, "▁instare": 8694, "itionibus": 8695, "▁imaginem": 8696, "▁nobiscum": 8697, "▁subiecta": 8698, "▁accusator": 8699, "▁consistere": 8700, "▁manifestum": 8701, "▁Agorastocles": 8702, "mvs": 8703, "igre": 8704, "▁dap": 8705, "▁suc": 8706, "▁Simo": 8707, "▁repos": 8708, "▁resis": 8709, "▁spret": 8710, "▁Hesper": 8711, "▁Rhodii": 8712, "▁artium": 8713, "▁impune": 8714, "▁includ": 8715, "▁iuncta": 8716, "▁magnas": 8717, "▁optimo": 8718, "▁valent": 8719, "▁vestib": 8720, "▁congreg": 8721, "▁grammat": 8722, "▁gravior": 8723, "▁mittunt": 8724, "▁respect": 8725, "▁segnius": 8726, "▁expertus": 8727, "▁tormenta": 8728, "▁tribunal": 8729, "▁Ciceronem": 8730, "▁sacerdotes": 8731, "▁verecundia": 8732, "LLI": 8733, "imam": 8734, "inat": 8735, "ester": 8736, "▁Hinc": 8737, "▁Socr": 8738, "▁abol": 8739, "▁collo": 8740, "▁Aemili": 8741, "▁fretum": 8742, "▁limina": 8743, "▁negant": 8744, "▁tollit": 8745, "▁Augusto": 8746, "▁solitus": 8747, "▁tabulas": 8748, "▁circiter": 8749, "▁apparebat": 8750, "▁acceperunt": 8751, "▁coniectura": 8752, "▁maiestatem": 8753, "▁praesentem": 8754, "arer": 8755, "▁Aed": 8756, "▁Sac": 8757, "liter": 8758, "▁mire": 8759, "▁nolo": 8760, "▁assum": 8761, "▁diuis": 8762, "▁iugis": 8763, "▁odore": 8764, "▁paria": 8765, "▁squal": 8766, "▁Tranio": 8767, "▁addito": 8768, "▁effusa": 8769, "▁incumb": 8770, "▁marito": 8771, "▁metuens": 8772, "▁publici": 8773, "▁coloniae": 8774, "▁iuberent": 8775, "hiop": 8776, "utas": 8777, "▁Mis": 8778, "▁poe": 8779, "▁tae": 8780, "▁Marci": 8781, "▁cadav": 8782, "▁heres": 8783, "▁conter": 8784, "▁harund": 8785, "▁mutare": 8786, "▁Aegypti": 8787, "▁captivos": 8788, "▁commeatu": 8789, "▁animalium": 8790, "▁contingere": 8791, "▁interfecti": 8792, "▁spectaculo": 8793, "▁Fr": 8794, "alio": 8795, "chis": 8796, "ecte": 8797, "▁Mut": 8798, "opere": 8799, "▁erub": 8800, "▁iurg": 8801, "▁Therm": 8802, "▁arcus": 8803, "▁reman": 8804, "▁Quidam": 8805, "▁addita": 8806, "▁deteri": 8807, "▁exclud": 8808, "▁matres": 8809, "entisque": 8810, "itterent": 8811, "▁Amphitr": 8812, "▁Galliae": 8813, "▁Hiberum": 8814, "▁humanae": 8815, "▁intoler": 8816, "▁meritum": 8817, "▁privato": 8818, "▁reverti": 8819, "▁secreta": 8820, "▁constern": 8821, "▁habuerunt": 8822, "▁pestilentia": 8823, "olus": 8824, "▁reo": 8825, "▁immod": 8826, "▁recon": 8827, "▁redig": 8828, "▁Poenos": 8829, "▁credit": 8830, "▁mentio": 8831, "▁compell": 8832, "▁condicio": 8833, "▁promissa": 8834, "▁frequenti": 8835, "▁plerosque": 8836, "aeis": 8837, "tici": 8838, "vdol": 8839, "▁uiu": 8840, "▁agam": 8841, "▁grem": 8842, "▁sero": 8843, "amenti": 8844, "itasse": 8845, "vdolvs": 8846, "▁astra": 8847, "▁dedec": 8848, "▁degen": 8849, "▁lenti": 8850, "▁meque": 8851, "▁turis": 8852, "▁Dionys": 8853, "▁Latine": 8854, "▁currum": 8855, "▁dicant": 8856, "tulerant": 8857, "▁nobilem": 8858, "▁nuptias": 8859, "▁tardius": 8860, "▁etiamnum": 8861, "▁Psevdolvs": 8862, "▁Sempronio": 8863, "▁animalibus": 8864, "eria": 8865, "etos": 8866, "▁Uei": 8867, "▁exi": 8868, "annis": 8869, "serat": 8870, "ulsum": 8871, "▁edoc": 8872, "ensius": 8873, "▁Etiam": 8874, "▁Syria": 8875, "▁deleg": 8876, "▁lecto": 8877, "▁farina": 8878, "▁minora": 8879, "▁saluti": 8880, "▁adortus": 8881, "▁coactus": 8882, "▁nuntios": 8883, "▁Sulpicio": 8884, "▁trecenti": 8885, "▁iussisset": 8886, "▁transitum": 8887, "▁Peloponnes": 8888, "AS": 8889, "imet": 8890, "▁Sim": 8891, "▁umb": 8892, "▁Styg": 8893, "▁binis": 8894, "▁struc": 8895, "erretur": 8896, "▁Livius": 8897, "▁absens": 8898, "▁agebat": 8899, "▁nemini": 8900, "▁dextera": 8901, "▁lapidem": 8902, "▁aequinoc": 8903, "▁fefellit": 8904, "▁introduc": 8905, "▁traditum": 8906, "▁nonnunquam": 8907, "con": 8908, "andro": 8909, "angit": 8910, "▁carb": 8911, "▁cras": 8912, "▁boves": 8913, "▁iacul": 8914, "▁laque": 8915, "▁situm": 8916, "▁Poenis": 8917, "▁Aethiop": 8918, "▁Volscis": 8919, "▁aderant": 8920, "▁dextram": 8921, "▁externa": 8922, "▁fulmine": 8923, "▁spectat": 8924, "▁tradere": 8925, "▁coloniam": 8926, "▁equitatus": 8927, "▁4": 8928, "aram": 8929, "yram": 8930, "▁Gel": 8931, "▁liv": 8932, "▁aris": 8933, "▁detr": 8934, "▁pomp": 8935, "onides": 8936, "▁audit": 8937, "▁querc": 8938, "ectibus": 8939, "▁Hamilc": 8940, "▁iugera": 8941, "▁nequit": 8942, "▁sensim": 8943, "▁Latinum": 8944, "▁invenio": 8945, "▁paribus": 8946, "▁civitati": 8947, "▁condidit": 8948, "▁imagines": 8949, "▁mitteret": 8950, "▁regiones": 8951, "▁fugientes": 8952, "▁prioribus": 8953, "▁consulares": 8954, "▁pollicitus": 8955, "▁contentione": 8956, "llis": 8957, "▁Tul": 8958, "▁sca": 8959, "ibant": 8960, "iscere": 8961, "ittend": 8962, "▁Pyrrh": 8963, "▁acerv": 8964, "▁incom": 8965, "▁laeva": 8966, "▁saxis": 8967, "▁scrut": 8968, "▁Latino": 8969, "▁culpae": 8970, "▁filiis": 8971, "▁legere": 8972, "▁occidi": 8973, "▁umeris": 8974, "▁uxoris": 8975, "▁Rhodiis": 8976, "▁respondere": 8977, "▁seditionem": 8978, "▁condicionem": 8979, "▁Atheniensium": 8980, "▁promunturium": 8981, "▁condicionibus": 8982, "▁buc": 8983, "▁sug": 8984, "▁Caec": 8985, "▁Fabi": 8986, "▁minu": 8987, "▁ruit": 8988, "▁abrup": 8989, "▁auris": 8990, "▁invoc": 8991, "andoque": 8992, "▁Paulus": 8993, "▁favore": 8994, "▁insper": 8995, "▁latera": 8996, "▁censuit": 8997, "▁simplex": 8998, "▁avaritia": 8999, "▁criminis": 9000, "▁invidiae": 9001, "▁tenebant": 9002, "▁criminibus": 9003, "▁disciplinae": 9004, "inii": 9005, "▁Ius": 9006, "▁pis": 9007, "▁tet": 9008, "▁duum": 9009, "▁fung": 9010, "▁nutr": 9011, "▁bonam": 9012, "▁istic": 9013, "▁marit": 9014, "▁matut": 9015, "▁nubes": 9016, "▁sterc": 9017, "endoque": 9018, "irentur": 9019, "▁acetum": 9020, "▁columb": 9021, "▁libido": 9022, "▁mariti": 9023, "▁patrio": 9024, "▁certior": 9025, "▁conclus": 9026, "▁fraudem": 9027, "▁gurgite": 9028, "▁ordinum": 9029, "▁vestros": 9030, "▁persequi": 9031, "▁senectus": 9032, "▁uictoria": 9033, "▁religionis": 9034, "▁medicamenta": 9035, "occ": 9036, "▁Ec": 9037, "▁XI": 9038, "orae": 9039, "▁ais": 9040, "licae": 9041, "▁Taur": 9042, "▁dolo": 9043, "▁resp": 9044, "▁sect": 9045, "▁Tibur": 9046, "▁oboed": 9047, "▁scand": 9048, "▁tereb": 9049, "▁adloqu": 9050, "▁cupido": 9051, "▁ductor": 9052, "▁obtest": 9053, "▁pastor": 9054, "▁vestem": 9055, "▁Hercule": 9056, "▁cernere": 9057, "▁ducenta": 9058, "▁gemitus": 9059, "▁dicionem": 9060, "▁prospera": 9061, "▁interpell": 9062, "▁nominatim": 9063, "▁necessitatem": 9064, "iii": 9065, "inx": 9066, "ynd": 9067, "etsi": 9068, "mine": 9069, "▁tir": 9070, "▁Nemo": 9071, "▁ingu": 9072, "▁ardua": 9073, "▁fames": 9074, "▁nimio": 9075, "▁abhorr": 9076, "▁concip": 9077, "▁consec": 9078, "▁impend": 9079, "▁animadv": 9080, "▁iudicii": 9081, "▁percont": 9082, "▁seditio": 9083, "▁armatura": 9084, "▁receptui": 9085, "▁lateribus": 9086, "▁medicinae": 9087, "▁mortalium": 9088, "▁Menaechmvs": 9089, "▁praeceptis": 9090, "▁bo": 9091, "iosi": 9092, "▁Cyr": 9093, "▁exe": 9094, "elium": 9095, "ensam": 9096, "toque": 9097, "▁Bell": 9098, "▁expi": 9099, "▁palp": 9100, "ebimus": 9101, "▁caret": 9102, "▁inper": 9103, "▁sacro": 9104, "▁adiung": 9105, "▁convoc": 9106, "▁exsequ": 9107, "▁pertim": 9108, "▁somnum": 9109, "▁Latinos": 9110, "▁gereret": 9111, "▁profess": 9112, "▁teneret": 9113, "▁scriptis": 9114, "uth": 9115, "▁bas": 9116, "▁elic": 9117, "▁rura": 9118, "eantur": 9119, "▁Arcad": 9120, "▁fluit": 9121, "▁profl": 9122, "▁satur": 9123, "▁tutus": 9124, "▁debuit": 9125, "▁licuit": 9126, "▁plenum": 9127, "▁qualia": 9128, "▁sagitt": 9129, "▁dicamus": 9130, "▁dicemus": 9131, "▁displic": 9132, "▁fecisti": 9133, "▁Siciliae": 9134, "▁abstulit": 9135, "▁adgressus": 9136, "▁voluerunt": 9137, "▁societatis": 9138, "▁consularibus": 9139, "yra": 9140, "▁Vet": 9141, "▁fib": 9142, "▁Appi": 9143, "▁adip": 9144, "▁telo": 9145, "▁vasa": 9146, "▁ardor": 9147, "▁dilap": 9148, "▁morae": 9149, "▁novae": 9150, "▁sciam": 9151, "ulerunt": 9152, "▁ductus": 9153, "▁limine": 9154, "▁missos": 9155, "▁pericl": 9156, "▁somnus": 9157, "▁commode": 9158, "▁dicenda": 9159, "▁exiguum": 9160, "▁feceris": 9161, "▁invicem": 9162, "▁purpura": 9163, "▁reditus": 9164, "▁facturos": 9165, "▁meretric": 9166, "▁placebat": 9167, "▁recipere": 9168, "▁censoribus": 9169, "▁constantia": 9170, "ETA": 9171, "lii": 9172, "uso": 9173, "utit": 9174, "TIPHO": 9175, "iloch": 9176, "uique": 9177, "▁feti": 9178, "▁naut": 9179, "▁porr": 9180, "▁altis": 9181, "▁datae": 9182, "▁deest": 9183, "▁uires": 9184, "▁caesis": 9185, "▁fontes": 9186, "▁incond": 9187, "▁mansit": 9188, "▁oscula": 9189, "▁superi": 9190, "▁Eumenis": 9191, "▁Sabinis": 9192, "▁carcere": 9193, "▁paratum": 9194, "▁ancipiti": 9195, "▁maturius": 9196, "▁frequentia": 9197, "uorum": 9198, "▁Pros": 9199, "▁epul": 9200, "▁absum": 9201, "▁debeo": 9202, "▁istos": 9203, "▁moras": 9204, "▁nigra": 9205, "▁timet": 9206, "▁petiit": 9207, "▁vitios": 9208, "▁coniuge": 9209, "▁hostiis": 9210, "▁institu": 9211, "▁littera": 9212, "▁coniugis": 9213, "▁argumenta": 9214, "▁prorogatum": 9215, "▁praetoribus": 9216, "DI": 9217, "api": 9218, "AVUS": 9219, "▁Nil": 9220, "▁dor": 9221, "▁fud": 9222, "▁gal": 9223, "emini": 9224, "trata": 9225, "▁Muci": 9226, "▁aevo": 9227, "▁eras": 9228, "▁frac": 9229, "▁Antig": 9230, "▁amnes": 9231, "▁fonte": 9232, "▁notae": 9233, "▁lapide": 9234, "▁trienn": 9235, "entemque": 9236, "▁intentus": 9237, "▁deprehend": 9238, "▁reconcili": 9239, "MO": 9240, "▁ín": 9241, "▁CCC": 9242, "▁Gen": 9243, "▁Sem": 9244, "ortis": 9245, "tilis": 9246, "▁coop": 9247, "▁rara": 9248, "▁probe": 9249, "▁uerba": 9250, "endarum": 9251, "▁gaudet": 9252, "▁vestis": 9253, "▁moritur": 9254, "▁naribus": 9255, "▁talenta": 9256, "▁videtis": 9257, "▁oratorem": 9258, "▁sapientem": 9259, "▁appellatus": 9260, "▁constituta": 9261, "▁facultatem": 9262, "▁victoribus": 9263, "inac": 9264, "▁Pac": 9265, "▁uac": 9266, "▁vina": 9267, "▁Laris": 9268, "▁Publi": 9269, "▁arida": 9270, "▁Graeco": 9271, "▁Ptolom": 9272, "▁aditum": 9273, "▁caterv": 9274, "▁corrig": 9275, "▁fortes": 9276, "▁Christo": 9277, "▁futuros": 9278, "▁perfecta": 9279, "▁prohibet": 9280, "▁adpropinqu": 9281, "▁pontifices": 9282, "▁primoribus": 9283, "▁Ah": 9284, "▁Dam": 9285, "▁faen": 9286, "▁arces": 9287, "▁inuen": 9288, "▁mitte": 9289, "▁rapta": 9290, "▁Attalo": 9291, "▁abunde": 9292, "▁detest": 9293, "▁edixit": 9294, "▁extoll": 9295, "▁occult": 9296, "▁reperi": 9297, "▁revers": 9298, "▁uindic": 9299, "▁Aemilium": 9300, "▁Etruscis": 9301, "▁argument": 9302, "▁coniuges": 9303, "▁feruntur": 9304, "▁privatus": 9305, "▁argumento": 9306, "▁munimenta": 9307, "▁relinquere": 9308, "tac": 9309, "▁IV": 9310, "erati": 9311, "▁Vesp": 9312, "▁cris": 9313, "▁curv": 9314, "▁lana": 9315, "ebamus": 9316, "▁Tulli": 9317, "▁cocta": 9318, "▁conch": 9319, "▁natos": 9320, "▁venia": 9321, "▁Ambrac": 9322, "▁Valeri": 9323, "▁nescit": 9324, "▁quadri": 9325, "▁soluta": 9326, "▁Attalus": 9327, "▁Etrusci": 9328, "▁ducenti": 9329, "▁laudare": 9330, "▁medicus": 9331, "▁ossibus": 9332, "▁poteris": 9333, "▁privata": 9334, "▁reduxit": 9335, "▁sororem": 9336, "▁sublato": 9337, "▁foederis": 9338, "▁scelerum": 9339, "▁interclus": 9340, "▁libidinem": 9341, "▁subsidiis": 9342, "▁triumphus": 9343, "▁vehementius": 9344, "▁transgressus": 9345, "HI": 9346, "rium": 9347, "usum": 9348, "vlvs": 9349, "▁Cos": 9350, "▁cod": 9351, "▁doli": 9352, "▁flav": 9353, "▁fusi": 9354, "▁sita": 9355, "uxisse": 9356, "▁vivit": 9357, "▁easdem": 9358, "▁pocula": 9359, "▁Cassius": 9360, "▁Ligurum": 9361, "▁adferre": 9362, "▁amissis": 9363, "▁conveni": 9364, "▁foribus": 9365, "▁paratus": 9366, "▁transit": 9367, "▁ageretur": 9368, "▁ceterorum": 9369, "▁patientia": 9370, "▁hominumque": 9371, "▁suspicionem": 9372, "ENO": 9373, "▁Bl": 9374, "gnum": 9375, "▁Lyd": 9376, "iniae": 9377, "rexit": 9378, "▁Huic": 9379, "▁Pyth": 9380, "▁adem": 9381, "▁capt": 9382, "▁resc": 9383, "▁Galba": 9384, "▁Troia": 9385, "▁diser": 9386, "▁miror": 9387, "▁necem": 9388, "▁prand": 9389, "ectitur": 9390, "▁Perseo": 9391, "▁imprud": 9392, "▁lubric": 9393, "▁sumere": 9394, "▁tendit": 9395, "▁vident": 9396, "▁Athenas": 9397, "▁indicio": 9398, "▁infesta": 9399, "▁legimus": 9400, "▁miserat": 9401, "▁antiquis": 9402, "▁hospitio": 9403, "▁simillim": 9404, "▁Praeterea": 9405, "▁Thessaliam": 9406, "ém": 9407, "▁DE": 9408, "▁Crem": 9409, "▁Soph": 9410, "▁DAVUS": 9411, "▁cerae": 9412, "▁evers": 9413, "▁notum": 9414, "▁quass": 9415, "▁vacat": 9416, "▁venis": 9417, "▁Antoni": 9418, "▁advent": 9419, "▁inprob": 9420, "▁probat": 9421, "▁excepit": 9422, "▁intulit": 9423, "▁quantus": 9424, "▁reddita": 9425, "tulissent": 9426, "▁Campanis": 9427, "▁equitatum": 9428, "▁ge": 9429, "▁Oct": 9430, "▁lem": 9431, "ensae": 9432, "nibus": 9433, "▁Dare": 9434, "▁grac": 9435, "▁toga": 9436, "▁verg": 9437, "▁actae": 9438, "▁queri": 9439, "▁senis": 9440, "▁colles": 9441, "▁humili": 9442, "▁pulsus": 9443, "▁reprim": 9444, "▁Catonis": 9445, "▁defendi": 9446, "▁mensura": 9447, "▁modicum": 9448, "▁gestarum": 9449, "▁paucorum": 9450, "▁appellata": 9451, "▁feminarum": 9452, "▁navalibus": 9453, "▁sapientiae": 9454, "bet": 9455, "cae": 9456, "uio": 9457, "alus": 9458, "urio": 9459, "▁Nab": 9460, "▁Occ": 9461, "ellos": 9462, "timur": 9463, "▁orae": 9464, "▁pulm": 9465, "▁agres": 9466, "▁ambig": 9467, "▁cupio": 9468, "▁dulce": 9469, "▁horam": 9470, "▁salis": 9471, "▁subst": 9472, "▁volui": 9473, "ropides": 9474, "▁cohors": 9475, "▁exigua": 9476, "▁lectis": 9477, "▁parati": 9478, "▁fluvium": 9479, "▁longior": 9480, "▁occupat": 9481, "▁consequi": 9482, "▁creditur": 9483, "▁egregium": 9484, "▁iudicare": 9485, "▁trecentos": 9486, "▁utilitatem": 9487, "▁philosophia": 9488, "▁magistratuum": 9489, "VM": 9490, "olog": 9491, "▁Aes": 9492, "▁Hir": 9493, "▁Pir": 9494, "ertia": 9495, "ontis": 9496, "▁aevi": 9497, "▁canc": 9498, "▁ibat": 9499, "uribus": 9500, "▁comas": 9501, "▁crebr": 9502, "▁ferae": 9503, "▁freta": 9504, "▁obstr": 9505, "▁soles": 9506, "▁Achill": 9507, "▁Tiberi": 9508, "▁extenu": 9509, "▁fateor": 9510, "▁medici": 9511, "▁senior": 9512, "▁serius": 9513, "▁servus": 9514, "▁vestim": 9515, "▁dominis": 9516, "▁habetur": 9517, "▁linguam": 9518, "▁nimirum": 9519, "▁ornatum": 9520, "▁Etruriae": 9521, "▁Minervae": 9522, "▁auspicia": 9523, "▁rationis": 9524, "▁consulere": 9525, "▁proposito": 9526, "▁redierunt": 9527, "▁nod": 9528, "▁pur": 9529, "erate": 9530, "▁Idus": 9531, "▁Tyri": 9532, "▁enum": 9533, "▁ortu": 9534, "▁plant": 9535, "▁adfert": 9536, "▁conper": 9537, "▁mollis": 9538, "▁peragr": 9539, "▁quiete": 9540, "▁comprob": 9541, "▁quintum": 9542, "▁dicebant": 9543, "▁extremis": 9544, "▁ingeniis": 9545, "▁militiam": 9546, "▁perpetuo": 9547, "▁postulat": 9548, "▁secundae": 9549, "▁Alexandro": 9550, "▁Theopropides": 9551, "PHIL": 9552, "▁Arp": 9553, "▁lor": 9554, "astis": 9555, "rorum": 9556, "▁Bith": 9557, "▁Pyrr": 9558, "▁aram": 9559, "▁ebur": 9560, "▁sugg": 9561, "etibus": 9562, "▁cibos": 9563, "▁origo": 9564, "▁verbi": 9565, "▁Falisc": 9566, "▁captos": 9567, "▁credib": 9568, "▁inferre": 9569, "▁officii": 9570, "▁quadrup": 9571, "▁uiginti": 9572, "▁responsa": 9573, "▁sensibus": 9574, "▁vidisset": 9575, "▁contentio": 9576, "▁decemviri": 9577, "▁popularis": 9578, "▁quinquenn": 9579, "▁similitudine": 9580, "én": 9581, "és": 9582, "▁XV": 9583, "tori": 9584, "▁Cyp": 9585, "ittat": 9586, "▁Mith": 9587, "▁agis": 9588, "▁drac": 9589, "▁humi": 9590, "▁suus": 9591, "▁harum": 9592, "▁scias": 9593, "▁silva": 9594, "▁socia": 9595, "▁aequis": 9596, "▁fistul": 9597, "▁libero": 9598, "▁meruit": 9599, "▁partum": 9600, "▁procre": 9601, "▁verius": 9602, "▁Manlium": 9603, "▁inopiam": 9604, "▁meliora": 9605, "▁inimicus": 9606, "▁intellex": 9607, "▁orientem": 9608, "▁Numidarum": 9609, "▁consecutus": 9610, "▁obsidionem": 9611, "tel": 9612, "elio": 9613, "ixus": 9614, "otos": 9615, "▁adj": 9616, "issos": 9617, "▁amph": 9618, "▁cera": 9619, "▁haut": 9620, "ulisti": 9621, "▁Avent": 9622, "▁comis": 9623, "▁indol": 9624, "▁pelli": 9625, "▁resid": 9626, "▁Brutum": 9627, "▁Namque": 9628, "▁discus": 9629, "▁fasces": 9630, "▁habeas": 9631, "▁benevol": 9632, "▁militia": 9633, "▁Charinvs": 9634, "▁crescere": 9635, "▁intemper": 9636, "▁retinere": 9637, "▁utcumque": 9638, "▁venturum": 9639, "entissimus": 9640, "▁appellari": 9641, "▁vetustate": 9642, "▁Masinissam": 9643, "▁philosophi": 9644, "onas": 9645, "tine": 9646, "▁Gad": 9647, "▁misi": 9648, "▁uiro": 9649, "illius": 9650, "ugurth": 9651, "▁calor": 9652, "▁horas": 9653, "▁optum": 9654, "▁pulsi": 9655, "▁solid": 9656, "▁Aequos": 9657, "▁Persei": 9658, "▁adorti": 9659, "▁cadunt": 9660, "▁medull": 9661, "▁ostium": 9662, "▁agminis": 9663, "▁tritici": 9664, "▁Bruttiis": 9665, "▁crederet": 9666, "▁parumper": 9667, "▁pecunias": 9668, "▁societas": 9669, "▁credebant": 9670, "▁propinquis": 9671, "anea": 9672, "asum": 9673, "lice": 9674, "▁Dana": 9675, "▁Laur": 9676, "▁flam": 9677, "▁forn": 9678, "etarum": 9679, "▁Bruti": 9680, "▁Trach": 9681, "▁credi": 9682, "▁Poenum": 9683, "▁Saturn": 9684, "▁cetero": 9685, "▁dubiis": 9686, "▁Iugurth": 9687, "▁huiusce": 9688, "▁sorores": 9689, "▁vidimus": 9690, "itatemque": 9691, "▁constare": 9692, "▁excessit": 9693, "▁habuerat": 9694, "▁ingentis": 9695, "icul": 9696, "olat": 9697, "▁pia": 9698, "RMENO": 9699, "sisse": 9700, "▁LXXX": 9701, "iciunt": 9702, "tulere": 9703, "▁actis": 9704, "▁regii": 9705, "▁urina": 9706, "▁congru": 9707, "▁defici": 9708, "▁laudat": 9709, "▁rursum": 9710, "▁satius": 9711, "▁tutius": 9712, "▁Volscos": 9713, "▁daturum": 9714, "▁perterr": 9715, "▁plurimi": 9716, "▁Brundisium": 9717, "hoc": 9718, "▁—,": 9719, "edes": 9720, "▁Inf": 9721, "▁adsc": 9722, "▁spon": 9723, "▁vili": 9724, "▁voti": 9725, "▁Marti": 9726, "▁ariet": 9727, "▁calum": 9728, "▁notis": 9729, "▁ponte": 9730, "▁scito": 9731, "▁vulgi": 9732, "▁argent": 9733, "▁curare": 9734, "▁dubito": 9735, "▁instar": 9736, "▁rectum": 9737, "▁subven": 9738, "▁Denique": 9739, "▁Tullius": 9740, "▁cognitum": 9741, "▁incessit": 9742, "▁interdic": 9743, "▁temptare": 9744, "▁convertit": 9745, "▁insignibus": 9746, "▁medicamentum": 9747, "ech": 9748, "▁Gl": 9749, "usit": 9750, "▁GETA": 9751, "▁Piso": 9752, "▁inha": 9753, "▁noua": 9754, "▁fetus": 9755, "▁recre": 9756, "▁urget": 9757, "▁Cannas": 9758, "▁bibere": 9759, "▁dolori": 9760, "▁redemp": 9761, "▁refici": 9762, "▁Toxilvs": 9763, "▁Vespasi": 9764, "▁auditis": 9765, "▁insulas": 9766, "▁intueri": 9767, "▁cogitare": 9768, "▁invenitur": 9769, "▁separatim": 9770, "▁singulari": 9771, "▁imperatori": 9772, "adas": 9773, "oram": 9774, "▁Deo": 9775, "▁Thr": 9776, "▁dira": 9777, "▁leti": 9778, "▁migr": 9779, "▁pila": 9780, "estris": 9781, "▁actus": 9782, "▁domic": 9783, "▁funus": 9784, "▁litig": 9785, "▁notas": 9786, "▁tenus": 9787, "abilius": 9788, "▁fateri": 9789, "▁hester": 9790, "▁permut": 9791, "▁quieti": 9792, "▁curatio": 9793, "▁iumenta": 9794, "▁prodidit": 9795, "▁tempesti": 9796, "▁Syracusis": 9797, "▁orationes": 9798, "enio": 9799, "▁pup": 9800, "▁riv": 9801, "▁Pomp": 9802, "▁humo": 9803, "▁cantu": 9804, "▁damno": 9805, "▁fatum": 9806, "▁uehem": 9807, "eperint": 9808, "▁Punici": 9809, "▁equite": 9810, "▁facund": 9811, "▁PARMENO": 9812, "▁discern": 9813, "▁honeste": 9814, "▁origine": 9815, "▁perfici": 9816, "entissima": 9817, "▁dentibus": 9818, "▁dicturus": 9819, "▁originem": 9820, "▁voluisse": 9821, "ationesque": 9822, "▁appellati": 9823, "▁cuiusquam": 9824, "▁gravitate": 9825, "▁licentiam": 9826, "▁stationem": 9827, "▁ingentibus": 9828, "▁legationes": 9829, "▁praeceptum": 9830, "▁simulacrum": 9831, "▁intellegere": 9832, ".)": 9833, "▁AN": 9834, "atho": 9835, "iger": 9836, "isca": 9837, "▁Pen": 9838, "MPHIL": 9839, "idiae": 9840, "▁edix": 9841, "ebitur": 9842, "▁crura": 9843, "▁dirip": 9844, "▁indoc": 9845, "▁remov": 9846, "entidem": 9847, "▁audivi": 9848, "▁harena": 9849, "▁obsecr": 9850, "▁posito": 9851, "▁promis": 9852, "▁versum": 9853, "▁gladium": 9854, "▁existimo": 9855, "▁incolumi": 9856, "▁indutias": 9857, "▁libertin": 9858, "▁magistri": 9859, "▁possimus": 9860, "▁identidem": 9861, "▁CC": 9862, "plor": 9863, "pond": 9864, "▁Lan": 9865, "▁Lun": 9866, "▁sut": 9867, "idamvs": 9868, "▁fossa": 9869, "▁horre": 9870, "▁insan": 9871, "▁ramos": 9872, "▁scuta": 9873, "▁baline": 9874, "▁celeri": 9875, "▁felici": 9876, "▁premit": 9877, "▁infesto": 9878, "▁iudicum": 9879, "▁quoddam": 9880, "▁contulit": 9881, "▁iniuriis": 9882, "▁responso": 9883, "▁Lysidamvs": 9884, "▁interfici": 9885, "alla": 9886, "elia": 9887, "▁Clu": 9888, "onias": 9889, "orsus": 9890, "▁Chal": 9891, "▁agat": 9892, "▁agens": 9893, "▁circo": 9894, "▁detin": 9895, "▁incon": 9896, "▁putem": 9897, "▁ripas": 9898, "▁ulcus": 9899, "▁ullis": 9900, "MPHILUS": 9901, "▁Ptolem": 9902, "▁audito": 9903, "▁correp": 9904, "▁mutata": 9905, "▁nubila": 9906, "▁saevit": 9907, "▁solito": 9908, "▁traxit": 9909, "abiliter": 9910, "▁aerario": 9911, "▁custodi": 9912, "▁idemque": 9913, "▁substit": 9914, "▁virgine": 9915, "▁audaciam": 9916, "▁petebant": 9917, "▁prospect": 9918, "▁terroris": 9919, "▁oportebit": 9920, "▁orationibus": 9921, "ono": 9922, "aeam": 9923, "anium": 9924, "▁lact": 9925, "▁Const": 9926, "▁carne": 9927, "▁malus": 9928, "▁versu": 9929, "ectione": 9930, "▁Commod": 9931, "▁approp": 9932, "▁iniquo": 9933, "▁peculi": 9934, "▁tantas": 9935, "▁testem": 9936, "▁aedibus": 9937, "▁dixerim": 9938, "▁prosunt": 9939, "▁constant": 9940, "▁doctrina": 9941, "▁meridiem": 9942, "▁Lucretius": 9943, "▁monumenta": 9944, "▁controversia": 9945, "▁rim": 9946, "▁ris": 9947, "taxat": 9948, "▁Corc": 9949, "▁Tynd": 9950, "▁accur": 9951, "▁finit": 9952, "▁inane": 9953, "▁ponit": 9954, "▁Decius": 9955, "▁Sabini": 9956, "▁dictit": 9957, "▁divisa": 9958, "▁hastam": 9959, "▁herbas": 9960, "▁ibidem": 9961, "▁petens": 9962, "▁Homerus": 9963, "▁duplici": 9964, "▁praebet": 9965, "▁tristia": 9966, "▁aeternum": 9967, "▁commissa": 9968, "▁perfecto": 9969, "▁sustinet": 9970, "▁volucres": 9971, "tali": 9972, "▁deli": 9973, "▁effl": 9974, "▁Calli": 9975, "▁caduc": 9976, "▁hiems": 9977, "▁leves": 9978, "▁quati": 9979, "▁solam": 9980, "ciperet": 9981, "piciens": 9982, "▁Graeca": 9983, "▁exiguo": 9984, "▁inprov": 9985, "▁licere": 9986, "▁misera": 9987, "▁valuit": 9988, "idissent": 9989, "▁incerto": 9990, "▁occisum": 9991, "▁ultimam": 9992, "▁dumtaxat": 9993, "▁historia": 9994, "▁sequatur": 9995, "▁cecidisse": 9996, "▁voluptates": 9997, "sas": 9998, "▁Na": 9999, "▁Ass": 10000, "ianum": 10001, "▁Laev": 10002, "▁cute": 10003, "ecerit": 10004, "▁horis": 10005, "▁molem": 10006, "▁civili": 10007, "▁furore": 10008, "▁misero": 10009, "▁parare": 10010, "▁plenus": 10011, "▁porrig": 10012, "▁propag": 10013, "▁Neronis": 10014, "▁deberet": 10015, "▁integri": 10016, "▁obiecta": 10017, "▁sublata": 10018, "▁supplex": 10019, "▁videris": 10020, "▁facturus": 10021, "▁habuerit": 10022, "▁hactenus": 10023, "▁parentum": 10024, "▁muneribus": 10025, "▁occasione": 10026, "▁pertinent": 10027, "▁ubicumque": 10028, "▁rogationem": 10029, "▁aliquotiens": 10030, "▁possessione": 10031, "vr": 10032, "port": 10033, "▁lam": 10034, "entas": 10035, "tidie": 10036, "undae": 10037, "▁Erat": 10038, "▁abnu": 10039, "▁alba": 10040, "▁Aelius": 10041, "▁approb": 10042, "▁iacere": 10043, "▁restat": 10044, "▁silvae": 10045, "▁classes": 10046, "▁humanum": 10047, "▁itinera": 10048, "▁permiss": 10049, "▁sortiti": 10050, "▁claustra": 10051, "▁iusserat": 10052, "▁ecclesiae": 10053, "▁suspicione": 10054, "▁transtulit": 10055, "▁praesentibus": 10056, "▁ú": 10057, "exa": 10058, "assem": 10059, "▁Febr": 10060, "▁geri": 10061, "▁ilia": 10062, "▁iunx": 10063, "▁nave": 10064, "perent": 10065, "▁Latio": 10066, "▁agunt": 10067, "▁breve": 10068, "▁Democr": 10069, "▁Samnium": 10070, "▁conpreh": 10071, "▁miseris": 10072, "▁percunc": 10073, "▁procons": 10074, "▁resinae": 10075, "▁dimidium": 10076, "▁simulque": 10077, "▁PAMPHILUS": 10078, "▁desiderio": 10079, "▁equestris": 10080, "▁transitus": 10081, "▁transgress": 10082, "▁sequebantur": 10083, "age": 10084, "arp": 10085, "▁Aeb": 10086, "▁que": 10087, "aculi": 10088, "▁Comm": 10089, "▁Lati": 10090, "▁lanc": 10091, "▁masc": 10092, "▁prog": 10093, "verant": 10094, "▁genua": 10095, "▁uidit": 10096, "oresque": 10097, "▁laetum": 10098, "▁latroc": 10099, "▁minima": 10100, "▁mundus": 10101, "▁putavi": 10102, "▁sentio": 10103, "▁sumptu": 10104, "▁taedio": 10105, "▁adsensu": 10106, "▁infesti": 10107, "▁inventi": 10108, "▁mortuum": 10109, "▁praeced": 10110, "▁scribam": 10111, "▁Persarum": 10112, "▁appareat": 10113, "▁barbaros": 10114, "▁incidere": 10115, "▁plurimos": 10116, "▁receptum": 10117, "▁testibus": 10118, "▁castellum": 10119, "▁incendium": 10120, "▁iuventute": 10121, "▁mitterent": 10122, "▁conloquium": 10123, "▁descendere": 10124, "▁temeritate": 10125, "RIA": 10126, "aun": 10127, "▁Des": 10128, "▁Inc": 10129, "▁Vix": 10130, "iscit": 10131, "▁Bass": 10132, "▁adim": 10133, "▁dirig": 10134, "▁feram": 10135, "▁ludic": 10136, "▁cultum": 10137, "▁imperi": 10138, "▁mortuo": 10139, "▁venere": 10140, "▁Numidas": 10141, "▁acriter": 10142, "▁alienae": 10143, "▁aspectu": 10144, "▁egressi": 10145, "▁fulmina": 10146, "▁medetur": 10147, "▁militis": 10148, "▁questus": 10149, "▁servire": 10150, "▁alternis": 10151, "▁superbia": 10152, "▁faciebant": 10153, "▁fratribus": 10154, "▁barbarorum": 10155, "▁committere": 10156, "▁praecordia": 10157, "▁LI": 10158, "▁ps": 10159, "acae": 10160, "quem": 10161, "ubus": 10162, "▁Loc": 10163, "▁Tyr": 10164, "▁fau": 10165, "▁uia": 10166, "enius": 10167, "▁eloc": 10168, "▁murr": 10169, "▁Casil": 10170, "▁actio": 10171, "▁adpos": 10172, "▁aptum": 10173, "▁cecin": 10174, "▁deque": 10175, "▁eique": 10176, "▁exorn": 10177, "▁invit": 10178, "▁peius": 10179, "esceret": 10180, "icerent": 10181, "▁caerim": 10182, "▁diripi": 10183, "▁peruen": 10184, "▁vicina": 10185, "▁aliarum": 10186, "▁ingress": 10187, "▁malefic": 10188, "▁convivio": 10189, "▁mulierem": 10190, "▁periclit": 10191, "▁relictus": 10192, "▁concessum": 10193, "▁quaesitum": 10194, "▁Masinissae": 10195, "▁animadvers": 10196, "▁continetur": 10197, "▁insequenti": 10198, "onym": 10199, "▁ast": 10200, "▁Nisi": 10201, "▁Verb": 10202, "▁amne": 10203, "serunt": 10204, "ulatus": 10205, "▁Eadem": 10206, "▁Fiden": 10207, "▁aditu": 10208, "▁cuper": 10209, "▁ingem": 10210, "▁trita": 10211, "avitque": 10212, "▁Bithyn": 10213, "▁dulcis": 10214, "▁haesit": 10215, "▁inopin": 10216, "▁puerit": 10217, "▁subire": 10218, "▁summus": 10219, "▁Calpurn": 10220, "▁dimisso": 10221, "▁telorum": 10222, "▁Cappadoc": 10223, "▁Marcelli": 10224, "▁imperare": 10225, "▁personis": 10226, "▁petentes": 10227, "▁tulerunt": 10228, "▁Macedonas": 10229, "▁facillime": 10230, "▁opportune": 10231, "▁perfectis": 10232, "▁tormentis": 10233, "LO": 10234, "▁Cup": 10235, "▁oce": 10236, "ernas": 10237, "▁Ceph": 10238, "▁aene": 10239, "▁atra": 10240, "▁Imper": 10241, "▁Theod": 10242, "▁addic": 10243, "▁ducum": 10244, "▁febre": 10245, "▁inuit": 10246, "▁ramis": 10247, "erentis": 10248, "▁pelago": 10249, "▁pharet": 10250, "▁tamque": 10251, "▁ventus": 10252, "▁verter": 10253, "▁contion": 10254, "▁miserae": 10255, "▁sumptum": 10256, "▁videbat": 10257, "▁caedibus": 10258, "▁divitias": 10259, "▁ferebant": 10260, "▁multaque": 10261, "▁sciendum": 10262, "▁permissum": 10263, "▁proposita": 10264, "eci": 10265, "▁IN": 10266, "▁Thy": 10267, "▁iri": 10268, "▁jam": 10269, "ulsos": 10270, "▁adde": 10271, "▁ense": 10272, "▁vali": 10273, "▁Argos": 10274, "▁canes": 10275, "▁corda": 10276, "▁uitam": 10277, "▁applic": 10278, "▁concus": 10279, "▁credis": 10280, "▁ineunt": 10281, "▁noluit": 10282, "▁vincla": 10283, "▁Mithrid": 10284, "▁commeat": 10285, "▁habebit": 10286, "▁inimici": 10287, "▁caritate": 10288, "▁compress": 10289, "▁mulieres": 10290, "▁sinistro": 10291, "▁stomacho": 10292, "▁virtutum": 10293, "▁Caecilius": 10294, "▁finitimis": 10295, "▁ignominia": 10296, "▁transcend": 10297, "▁appropinqu": 10298, "▁iuventutis": 10299, "▁contumeliam": 10300, "agus": 10301, "osam": 10302, "▁Tam": 10303, "▁ite": 10304, "▁Flav": 10305, "▁Quos": 10306, "▁Ulix": 10307, "▁vice": 10308, "iaeque": 10309, "sisset": 10310, "▁amant": 10311, "▁equus": 10312, "▁rupes": 10313, "propter": 10314, "▁herbis": 10315, "▁nullos": 10316, "▁obiurg": 10317, "▁parari": 10318, "▁periit": 10319, "▁rustic": 10320, "▁adeptus": 10321, "▁avertit": 10322, "▁ducebat": 10323, "▁effecit": 10324, "▁fugiens": 10325, "▁Hercules": 10326, "▁meliorem": 10327, "▁noctibus": 10328, "▁suspicio": 10329, "▁praetorum": 10330, "▁principia": 10331, "aten": 10332, "osae": 10333, "▁Rem": 10334, "▁glob": 10335, "abitis": 10336, "▁Sosia": 10337, "▁avium": 10338, "▁devor": 10339, "▁lunae": 10340, "avisset": 10341, "▁accipe": 10342, "▁conval": 10343, "▁decurr": 10344, "▁duarum": 10345, "▁relata": 10346, "▁sedulo": 10347, "▁valere": 10348, "▁accepti": 10349, "▁decimum": 10350, "▁dominos": 10351, "▁interre": 10352, "▁sustent": 10353, "▁carcerem": 10354, "▁equestri": 10355, "▁hospitium": 10356, "▁pervenire": 10357, "▁Hasdrubalem": 10358, "lep": 10359, "▁lu": 10360, "acio": 10361, "llae": 10362, "▁Vib": 10363, "▁adur": 10364, "▁nect": 10365, "▁pamp": 10366, "▁ting": 10367, "aremus": 10368, "ientes": 10369, "▁arbus": 10370, "▁diuit": 10371, "▁parce": 10372, "▁vetat": 10373, "▁coacti": 10374, "▁conqui": 10375, "▁domine": 10376, "▁intemp": 10377, "▁longin": 10378, "▁merces": 10379, "▁dimissi": 10380, "▁dominae": 10381, "▁feminas": 10382, "▁oblitus": 10383, "▁cepisset": 10384, "▁miraculo": 10385, "▁subsidio": 10386, "▁complures": 10387, "▁haberetur": 10388, "▁maiestate": 10389, "▁militarem": 10390, "▁Alexandrum": 10391, "▁difficillim": 10392, "uer": 10393, "icio": 10394, "reti": 10395, "tari": 10396, "▁Atl": 10397, "▁Pul": 10398, "▁ago": 10399, "▁sob": 10400, "▁Volum": 10401, "▁dirim": 10402, "▁humum": 10403, "▁laevo": 10404, "▁scind": 10405, "▁Aequis": 10406, "▁dabant": 10407, "▁insect": 10408, "▁sidere": 10409, "▁ulcisc": 10410, "▁vultum": 10411, "▁actione": 10412, "▁habenda": 10413, "▁perfund": 10414, "▁petebat": 10415, "▁Domitius": 10416, "▁absentem": 10417, "▁ingentes": 10418, "▁peregrin": 10419, "▁tenebras": 10420, "▁cognomine": 10421, "▁contingit": 10422, "▁argumentis": 10423, "▁Carthaginis": 10424, "pul": 10425, "uir": 10426, "▁And": 10427, "▁Iub": 10428, "ernae": 10429, "unxit": 10430, "▁Sarm": 10431, "▁tons": 10432, "▁tuti": 10433, "▁uoce": 10434, "▁durum": 10435, "▁feret": 10436, "▁gerit": 10437, "▁latum": 10438, "▁spong": 10439, "▁valle": 10440, "▁censes": 10441, "▁effuse": 10442, "▁sumpta": 10443, "▁turbae": 10444, "▁turmas": 10445, "▁uerbis": 10446, "▁Catonem": 10447, "▁Romanas": 10448, "▁consurg": 10449, "▁laborum": 10450, "▁ludorum": 10451, "▁paratos": 10452, "▁tametsi": 10453, "▁inveniri": 10454, "▁perdidit": 10455, "▁transitu": 10456, "▁mortalibus": 10457, "▁xx": 10458, "imvs": 10459, "pugn": 10460, "tatis": 10461, "▁Octa": 10462, "▁uita": 10463, "▁auxit": 10464, "▁cupit": 10465, "▁invol": 10466, "ulisque": 10467, "▁Volsci": 10468, "▁equiti": 10469, "▁fracta": 10470, "▁nullas": 10471, "▁remans": 10472, "▁Milphio": 10473, "▁biennio": 10474, "▁eventum": 10475, "▁facilem": 10476, "▁gladios": 10477, "▁numquid": 10478, "▁obscura": 10479, "▁percipi": 10480, "▁probare": 10481, "▁proprae": 10482, "▁incendia": 10483, "▁mercedem": 10484, "▁negotiis": 10485, "▁capitibus": 10486, "▁perventum": 10487, "▁cupiditatem": 10488, "▁Lacedaemoniorum": 10489, "▁6": 10490, "aep": 10491, "ope": 10492, "agis": 10493, "▁Hym": 10494, "▁exci": 10495, "▁trag": 10496, "▁Hegio": 10497, "▁Priam": 10498, "▁inveh": 10499, "▁petul": 10500, "▁sonum": 10501, "▁tutel": 10502, "▁amisso": 10503, "▁carere": 10504, "▁decora": 10505, "▁effuso": 10506, "▁inesse": 10507, "▁modica": 10508, "▁obvius": 10509, "▁peremp": 10510, "▁ruinis": 10511, "▁vertic": 10512, "▁abscond": 10513, "▁adsenti": 10514, "▁audisse": 10515, "▁mercenn": 10516, "▁muneris": 10517, "▁cerneret": 10518, "▁ingressi": 10519, "▁interven": 10520, "▁mortales": 10521, "▁nobilium": 10522, "▁instituta": 10523, "▁libertati": 10524, "▁praecipuum": 10525, "▁appellantur": 10526, "▁diligentius": 10527, "rad": 10528, "rii": 10529, "▁Du": 10530, "▁Ante": 10531, "▁rata": 10532, "▁sono": 10533, "▁egest": 10534, "▁varie": 10535, "▁clarum": 10536, "▁inmort": 10537, "▁crescit": 10538, "▁destitu": 10539, "▁occulta": 10540, "▁stativa": 10541, "▁tendere": 10542, "▁concessa": 10543, "▁ciuitatis": 10544, "▁contrario": 10545, "▁familiari": 10546, "▁perfectum": 10547, "▁supplicia": 10548, "XXX": 10549, "haec": 10550, "yris": 10551, "▁Ias": 10552, "▁frui": 10553, "▁siet": 10554, "taeque": 10555, "▁damna": 10556, "▁vario": 10557, "▁Cumque": 10558, "▁Theoph": 10559, "▁comoed": 10560, "▁decimo": 10561, "▁detrim": 10562, "▁excurs": 10563, "▁exsecr": 10564, "▁fortem": 10565, "▁frugum": 10566, "▁habens": 10567, "▁oppidi": 10568, "▁repudi": 10569, "▁subter": 10570, "▁Licinio": 10571, "▁digitos": 10572, "▁uirtute": 10573, "▁ventrem": 10574, "▁credebat": 10575, "▁crudelis": 10576, "▁dissenti": 10577, "▁intercep": 10578, "▁oporteat": 10579, "▁patricii": 10580, "▁crederent": 10581, "▁custodibus": 10582, "▁nobilitate": 10583, "▁triumphavit": 10584, "▁Lacedaemonii": 10585, "▁imperatoribus": 10586, "ciae": 10587, "ioso": 10588, "▁Hyp": 10589, "▁pae": 10590, "▁Cycl": 10591, "▁card": 10592, "▁sitim": 10593, "rumpere": 10594, "▁Albano": 10595, "▁aegrum": 10596, "▁instru": 10597, "▁retrac": 10598, "▁sancti": 10599, "▁strage": 10600, "▁Porcius": 10601, "▁credunt": 10602, "▁describ": 10603, "▁nuntiis": 10604, "▁oppidis": 10605, "▁piperis": 10606, "▁adversis": 10607, "▁personam": 10608, "▁diceretur": 10609, "▁formidine": 10610, "▁laboribus": 10611, "▁manifesta": 10612, "▁nominatur": 10613, "▁oppressit": 10614, "▁uideretur": 10615, "▁felicitate": 10616, "íc": 10617, "enni": 10618, "▁Cad": 10619, "▁ans": 10620, "ebrae": 10621, "ernos": 10622, "ianus": 10623, "▁Pute": 10624, "▁Ruti": 10625, "▁Them": 10626, "▁orto": 10627, "▁pone": 10628, "▁volt": 10629, "atarum": 10630, "ellius": 10631, "ituram": 10632, "▁debes": 10633, "▁firma": 10634, "▁intum": 10635, "▁servo": 10636, "▁Flamin": 10637, "▁exterr": 10638, "▁quater": 10639, "ittendum": 10640, "▁Massili": 10641, "▁arborem": 10642, "▁armatus": 10643, "▁flammas": 10644, "▁placeat": 10645, "▁proprio": 10646, "▁pudorem": 10647, "▁scripto": 10648, "▁secreto": 10649, "▁timorem": 10650, "▁Fortunae": 10651, "▁exposuit": 10652, "▁imperata": 10653, "▁interpon": 10654, "▁secundam": 10655, "▁viderent": 10656, "▁accepisse": 10657, "▁certiorem": 10658, "▁composito": 10659, "▁laetitiam": 10660, "▁relinquit": 10661, "▁ceciderunt": 10662, "▁philosophiae": 10663, "▁Lacedaemoniis": 10664, "ada": 10665, "▁Dia": 10666, "▁Sci": 10667, "▁Sib": 10668, "abere": 10669, "iosis": 10670, "turis": 10671, "▁avoc": 10672, "▁elix": 10673, "tosque": 10674, "▁Charm": 10675, "▁Tyrrh": 10676, "▁morti": 10677, "▁utili": 10678, "▁Epicyd": 10679, "▁Victor": 10680, "▁amores": 10681, "▁attrib": 10682, "▁fundit": 10683, "▁inquir": 10684, "erterunt": 10685, "▁conlaud": 10686, "▁dedecus": 10687, "▁monstra": 10688, "▁septimo": 10689, "▁colonias": 10690, "▁fecerant": 10691, "▁maiestas": 10692, "▁receptus": 10693, "▁superque": 10694, "▁angustiis": 10695, "▁discedere": 10696, "▁patiuntur": 10697, "▁videbitur": 10698, "▁elephantos": 10699, "uu": 10700, "yro": 10701, "anto": 10702, "▁Ari": 10703, "eatis": 10704, "inter": 10705, "▁albo": 10706, "▁apes": 10707, "▁sols": 10708, "▁Cotta": 10709, "▁Manli": 10710, "▁album": 10711, "▁bonae": 10712, "▁edita": 10713, "▁exord": 10714, "▁folio": 10715, "▁indom": 10716, "▁inhum": 10717, "▁spond": 10718, "▁Chrysi": 10719, "▁animas": 10720, "▁combus": 10721, "▁docere": 10722, "▁gestae": 10723, "▁herbae": 10724, "▁auditum": 10725, "▁perfric": 10726, "▁referam": 10727, "▁decessit": 10728, "▁doloribus": 10729, "▁Campanorum": 10730, "NUS": 10731, "ren": 10732, "raes": 10733, "▁Lar": 10734, "▁Vul": 10735, "▁acu": 10736, "amini": 10737, "▁Phar": 10738, "▁coha": 10739, "▁conm": 10740, "▁doct": 10741, "▁leve": 10742, "▁mero": 10743, "▁pura": 10744, "▁conpr": 10745, "▁victo": 10746, "▁aurium": 10747, "▁captas": 10748, "▁contag": 10749, "▁movent": 10750, "▁nactus": 10751, "▁occiso": 10752, "▁poscit": 10753, "▁proles": 10754, "▁armaque": 10755, "▁heredem": 10756, "▁invitus": 10757, "▁meliore": 10758, "▁nubibus": 10759, "▁proximi": 10760, "▁subeunt": 10761, "▁conditum": 10762, "▁propriis": 10763, "▁sermones": 10764, "▁ferociter": 10765, "▁imperatum": 10766, "▁admiratione": 10767, "▁defectionis": 10768, "▁longitudinem": 10769, "\",": 10770, "inu": 10771, "icen": 10772, "quin": 10773, "▁Nem": 10774, "▁ras": 10775, "▁exag": 10776, "▁vesc": 10777, "▁Britt": 10778, "▁addit": 10779, "▁arvis": 10780, "▁cordi": 10781, "▁dices": 10782, "▁divum": 10783, "▁egere": 10784, "▁iusti": 10785, "▁latet": 10786, "▁rogat": 10787, "errimus": 10788, "▁Callic": 10789, "▁Marius": 10790, "▁ambitu": 10791, "▁inviol": 10792, "▁nuntii": 10793, "▁nutric": 10794, "▁patere": 10795, "▁tutela": 10796, "▁urbana": 10797, "▁capiunt": 10798, "▁deducta": 10799, "▁excitat": 10800, "▁futurae": 10801, "▁remedio": 10802, "▁suspend": 10803, "▁pietatis": 10804, "▁Africanus": 10805, "▁intestina": 10806, "▁postridie": 10807, "▁superbiam": 10808, "▁testimonio": 10809, "▁diligentissime": 10810, "AR": 10811, "mum": 10812, "etheg": 10813, "uiter": 10814, "▁aure": 10815, "▁date": 10816, "▁scrob": 10817, "▁Ballio": 10818, "▁Cetheg": 10819, "▁aedium": 10820, "▁coetus": 10821, "▁exinde": 10822, "▁habito": 10823, "▁maluit": 10824, "▁missae": 10825, "▁sancta": 10826, "▁suspir": 10827, "▁syllab": 10828, "▁uellet": 10829, "▁urinam": 10830, "▁civilis": 10831, "▁perdere": 10832, "▁putavit": 10833, "▁respons": 10834, "▁Servilio": 10835, "▁adversae": 10836, "▁naturali": 10837, "▁magnopere": 10838, "▁seditione": 10839, "nio": 10840, "▁Ul": 10841, "onus": 10842, "▁Bab": 10843, "▁Div": 10844, "osius": 10845, "ulari": 10846, "▁cena": 10847, "▁desi": 10848, "▁uiam": 10849, "▁arcis": 10850, "▁levia": 10851, "▁Flacco": 10852, "▁Marcio": 10853, "▁aberat": 10854, "▁alterc": 10855, "▁demens": 10856, "▁epulas": 10857, "▁posses": 10858, "▁proxum": 10859, "▁virgis": 10860, "antemque": 10861, "▁abesset": 10862, "▁decoris": 10863, "▁numinis": 10864, "▁posthac": 10865, "▁trepida": 10866, "▁ambitios": 10867, "▁cohortis": 10868, "▁creditum": 10869, "▁placeret": 10870, "▁proximos": 10871, "▁utilitas": 10872, "▁abstinere": 10873, "▁iudicibus": 10874, "▁nobilitas": 10875, "▁repentino": 10876, "▁varietate": 10877, "▁legationem": 10878, "▁neglegentia": 10879, "▁auctoritatis": 10880, "iani": 10881, "▁Cin": 10882, "▁Cre": 10883, "▁Lamp": 10884, "▁duro": 10885, "▁pice": 10886, "▁semp": 10887, "▁sube": 10888, "ulerat": 10889, "▁Scrib": 10890, "▁aerum": 10891, "▁posui": 10892, "▁sedet": 10893, "▁trago": 10894, "▁dulced": 10895, "▁hiemis": 10896, "▁mature": 10897, "▁stabat": 10898, "▁string": 10899, "▁tectum": 10900, "▁tunica": 10901, "▁victim": 10902, "▁Hippocr": 10903, "▁Numquam": 10904, "▁relatum": 10905, "▁securus": 10906, "▁Tarquini": 10907, "▁deducere": 10908, "▁potestis": 10909, "▁Trachalio": 10910, "▁principiis": 10911, "brum": 10912, "opat": 10913, "otas": 10914, "▁Lem": 10915, "▁obu": 10916, "▁anus": 10917, "▁poni": 10918, "avitas": 10919, "imenta": 10920, "▁Sidic": 10921, "▁Trans": 10922, "▁Vetur": 10923, "▁admix": 10924, "▁panis": 10925, "▁ripis": 10926, "▁tabul": 10927, "▁Achaei": 10928, "▁Martem": 10929, "▁exitio": 10930, "▁pecora": 10931, "▁pestis": 10932, "▁putent": 10933, "▁satell": 10934, "▁scalis": 10935, "▁uideri": 10936, "▁videat": 10937, "▁confert": 10938, "▁conlatis": 10939, "▁decedere": 10940, "▁praebere": 10941, "▁suspecta": 10942, "▁censerent": 10943, "▁posuerunt": 10944, "▁traiceret": 10945, "▁difficilis": 10946, "▁quapropter": 10947, "▁commeatibus": 10948, "▁differentia": 10949, "sim": 10950, "ecere": 10951, "▁Caud": 10952, "▁Ianu": 10953, "▁Peti": 10954, "▁inul": 10955, "▁opor": 10956, "avisse": 10957, "▁Thras": 10958, "▁audax": 10959, "▁aurem": 10960, "▁croci": 10961, "▁feris": 10962, "▁fraus": 10963, "▁reput": 10964, "▁sexto": 10965, "▁ullus": 10966, "ecturum": 10967, "▁Domino": 10968, "▁Troiae": 10969, "▁credas": 10970, "▁navali": 10971, "▁nervis": 10972, "▁rector": 10973, "▁triduo": 10974, "▁vetera": 10975, "▁Agrippa": 10976, "▁anteced": 10977, "▁honesti": 10978, "▁horrida": 10979, "▁momenti": 10980, "▁nuptiis": 10981, "▁patiens": 10982, "▁Anglorum": 10983, "▁alimenta": 10984, "▁omnesque": 10985, "▁venirent": 10986, "▁aedilibus": 10987, "▁circumduc": 10988, "▁commodius": 10989, "▁composita": 10990, "▁obsidibus": 10991, "▁accepisset": 10992, "▁decreverunt": 10993, "▁pervenerunt": 10994, "▁Eg": 10995, "▁Ibi": 10996, "▁hed": 10997, "▁Andr": 10998, "▁area": 10999, "▁earn": 11000, "▁elud": 11001, "▁leto": 11002, "▁stad": 11003, "▁Huius": 11004, "▁biduo": 11005, "▁genet": 11006, "▁mitis": 11007, "▁retic": 11008, "▁inaequ": 11009, "▁instat": 11010, "▁perhib": 11011, "▁pisces": 11012, "▁vixdum": 11013, "▁Venerem": 11014, "▁conspex": 11015, "▁experti": 11016, "▁externis": 11017, "▁nonnulli": 11018, "▁pectoris": 11019, "▁classibus": 11020, "▁concursus": 11021, "▁minoribus": 11022, "▁peditibus": 11023, "▁paterentur": 11024, "▁pontificum": 11025, "▁seditionis": 11026, "ún": 11027, "bos": 11028, "rev": 11029, "▁TH": 11030, "▁quí": 11031, "lices": 11032, "▁Silv": 11033, "ativum": 11034, "etatem": 11035, "tamque": 11036, "▁Histr": 11037, "▁amput": 11038, "▁nedum": 11039, "▁nupta": 11040, "▁repar": 11041, "▁clarus": 11042, "▁digito": 11043, "▁gemitu": 11044, "▁iudice": 11045, "▁maxume": 11046, "▁prodit": 11047, "▁quiesc": 11048, "ientibus": 11049, "▁aediles": 11050, "▁aeterna": 11051, "▁confund": 11052, "▁constet": 11053, "▁convert": 11054, "▁fallere": 11055, "▁fecimus": 11056, "▁obtrunc": 11057, "▁sibimet": 11058, "▁capillos": 11059, "▁coeperat": 11060, "▁credidit": 11061, "▁modestia": 11062, "▁virginis": 11063, "▁circumspect": 11064, "▁eloquentiam": 11065, "yz": 11066, "hic": 11067, "andri": 11068, "urium": 11069, "▁Cinc": 11070, "▁Pyrg": 11071, "▁apte": 11072, "▁decr": 11073, "▁fleb": 11074, "inaria": 11075, "▁Calid": 11076, "▁Phoen": 11077, "▁exsul": 11078, "▁limen": 11079, "▁votum": 11080, "▁Sibyll": 11081, "▁adgred": 11082, "▁aggere": 11083, "▁census": 11084, "▁ignota": 11085, "▁lasciv": 11086, "▁reform": 11087, "▁servat": 11088, "▁utilia": 11089, "▁occulto": 11090, "▁rostris": 11091, "▁tellure": 11092, "▁defendit": 11093, "▁mulieris": 11094, "▁multoque": 11095, "▁nocturno": 11096, "▁memorabile": 11097, "▁quaestione": 11098, "▁misericordiam": 11099, "10": 11100, "oh": 11101, "IPHO": 11102, "tati": 11103, "▁Nep": 11104, "▁Zen": 11105, "▁Hect": 11106, "▁adfl": 11107, "▁alve": 11108, "▁Carth": 11109, "▁arrep": 11110, "▁mulso": 11111, "▁nocet": 11112, "▁porri": 11113, "▁reddi": 11114, "▁tumor": 11115, "▁Veneri": 11116, "▁affirm": 11117, "▁aspici": 11118, "▁emplas": 11119, "▁greges": 11120, "▁pignus": 11121, "▁titulo": 11122, "▁trirem": 11123, "▁commoda": 11124, "▁inimica": 11125, "▁inspect": 11126, "▁iubebat": 11127, "▁nonnull": 11128, "▁planiti": 11129, "▁stirpis": 11130, "▁volebat": 11131, "▁amplexus": 11132, "▁loquendi": 11133, "▁nocturna": 11134, "▁pugnandi": 11135, "▁dicebatur": 11136, "▁oppugnari": 11137, "▁peregrina": 11138, "▁semperque": 11139, "▁serpentes": 11140, "▁sustinuit": 11141, "▁censuerunt": 11142, "▁certaminibus": 11143, "▁voluptatibus": 11144, "cia": 11145, "mos": 11146, "apon": 11147, "orio": 11148, "orvs": 11149, "▁Lil": 11150, "▁pru": 11151, "▁capr": 11152, "▁mamm": 11153, "▁nato": 11154, "▁Iouis": 11155, "▁Nymph": 11156, "▁histr": 11157, "▁necop": 11158, "▁saxum": 11159, "▁Phaedr": 11160, "▁Seneca": 11161, "▁commer": 11162, "▁incert": 11163, "▁libere": 11164, "▁omisso": 11165, "▁proven": 11166, "▁Baebius": 11167, "▁comiter": 11168, "▁potitus": 11169, "▁reperta": 11170, "▁virtuti": 11171, "entissimi": 11172, "▁Alexandr": 11173, "▁accendit": 11174, "▁parietes": 11175, "▁permisit": 11176, "▁posteris": 11177, "▁proditum": 11178, "▁reliquos": 11179, "▁sufficit": 11180, "▁acceperat": 11181, "▁opportuna": 11182, "▁animadvert": 11183, "▁carminibus": 11184, "▁iuventutem": 11185, "▁sequentibus": 11186, "▁oppugnatione": 11187, "uxi": 11188, "▁Sti": 11189, "▁Vis": 11190, "▁Pars": 11191, "▁cith": 11192, "▁ebri": 11193, "▁mucr": 11194, "quamur": 11195, "▁Babyl": 11196, "▁nutri": 11197, "▁ocius": 11198, "abundus": 11199, "ensione": 11200, "▁Ennius": 11201, "▁agatur": 11202, "▁armata": 11203, "▁fessis": 11204, "▁nomini": 11205, "▁robora": 11206, "▁sacros": 11207, "▁subici": 11208, "▁tuenda": 11209, "▁umbram": 11210, "▁venena": 11211, "▁comprim": 11212, "▁exempli": 11213, "▁inmorta": 11214, "▁insigni": 11215, "▁ornatus": 11216, "▁praemio": 11217, "▁progeni": 11218, "▁trahere": 11219, "▁Bruttios": 11220, "▁omniaque": 11221, "▁praefecti": 11222, "▁quibusque": 11223, "▁uidebatur": 11224, "▁acciperent": 11225, "▁constitutum": 11226, "allo": 11227, "uque": 11228, "▁fod": 11229, "▁fons": 11230, "▁punc": 11231, "▁vene": 11232, "▁Suess": 11233, "▁datam": 11234, "▁excub": 11235, "▁freto": 11236, "▁gelid": 11237, "▁habui": 11238, "▁somni": 11239, "▁versi": 11240, "enturum": 11241, "iderant": 11242, "ulisset": 11243, "▁Anchis": 11244, "▁ardore": 11245, "▁deerat": 11246, "▁fronde": 11247, "▁fruges": 11248, "▁gerens": 11249, "▁ingeni": 11250, "▁sistit": 11251, "▁adempta": 11252, "▁adesset": 11253, "▁colonis": 11254, "▁comitem": 11255, "▁iudicis": 11256, "▁liberam": 11257, "▁superbi": 11258, "▁tractus": 11259, "▁cecidere": 11260, "▁cuiusdam": 11261, "▁pateretur": 11262, "▁ignominiam": 11263, "▁testamento": 11264, "▁Demetriadem": 11265, "án": 11266, "▁”": 11267, "elis": 11268, "iculi": 11269, "ipere": 11270, "serit": 11271, "▁Gord": 11272, "▁Maur": 11273, "▁Vulc": 11274, "▁crus": 11275, "▁deam": 11276, "▁elap": 11277, "▁sept": 11278, "▁Insub": 11279, "▁absit": 11280, "▁favor": 11281, "▁genas": 11282, "▁lapis": 11283, "aturque": 11284, "▁abeunt": 11285, "▁amator": 11286, "▁curiae": 11287, "▁femine": 11288, "▁maesta": 11289, "▁morbos": 11290, "▁rogare": 11291, "▁turpis": 11292, "▁vendit": 11293, "▁vestes": 11294, "▁advenit": 11295, "▁egregia": 11296, "▁imitari": 11297, "▁levibus": 11298, "▁miseram": 11299, "▁perisse": 11300, "▁puellam": 11301, "▁sepulch": 11302, "▁ciuitate": 11303, "▁decretae": 11304, "▁inferior": 11305, "▁sempiter": 11306, "▁lapidibus": 11307, "▁scriberet": 11308, "▁appellavit": 11309, "▁adulescentem": 11310, "▁exercitatione": 11311, "act": 11312, "enth": 11313, "lide": 11314, "nunc": 11315, "olam": 11316, "tino": 11317, "▁deu": 11318, "▁Haud": 11319, "▁Lesb": 11320, "▁care": 11321, "▁fist": 11322, "▁nube": 11323, "▁alacr": 11324, "▁calce": 11325, "▁linam": 11326, "▁nolle": 11327, "▁Academ": 11328, "▁fretus": 11329, "▁interu": 11330, "▁legunt": 11331, "▁pallid": 11332, "▁quoquo": 11333, "▁solita": 11334, "▁tacita": 11335, "▁Lepidus": 11336, "▁Punicum": 11337, "▁adeoque": 11338, "▁cupress": 11339, "▁habuere": 11340, "▁munific": 11341, "▁superis": 11342, "▁superos": 11343, "▁Apollini": 11344, "▁Postquam": 11345, "▁adstring": 11346, "▁censebat": 11347, "▁circuitu": 11348, "▁conscend": 11349, "▁custodes": 11350, "▁effectum": 11351, "▁funditus": 11352, "▁interced": 11353, "▁libidine": 11354, "▁virginem": 11355, "▁Tusculano": 11356, "▁contubern": 11357, "▁gladiator": 11358, "▁petierunt": 11359, "▁praeclara": 11360, "▁quotannis": 11361, "▁studiorum": 11362, "▁appellatum": 11363, "▁fugientium": 11364, "▁recentibus": 11365, "▁philosophorum": 11366, "isis": 11367, "ligo": 11368, "peti": 11369, "▁Boe": 11370, "orrup": 11371, "▁Argo": 11372, "▁Scio": 11373, "▁hero": 11374, "▁lacu": 11375, "entini": 11376, "▁Lilyb": 11377, "▁coetu": 11378, "▁exsol": 11379, "▁genit": 11380, "▁inici": 11381, "▁invet": 11382, "▁irent": 11383, "▁longi": 11384, "▁nares": 11385, "▁peror": 11386, "▁vites": 11387, "▁Crasso": 11388, "▁Primum": 11389, "▁certus": 11390, "▁cinere": 11391, "▁civile": 11392, "▁cuncti": 11393, "▁mortui": 11394, "▁noverc": 11395, "▁consumm": 11396, "▁dimidia": 11397, "▁furorem": 11398, "▁obtrect": 11399, "▁remisit": 11400, "▁Augustum": 11401, "▁inimicis": 11402, "▁mandatis": 11403, "▁populari": 11404, "▁superare": 11405, "▁oporteret": 11406, "▁populique": 11407, "▁uictoriam": 11408, "▁altitudine": 11409, "▁interfectis": 11410, "▁matrimonium": 11411, "▁animadvertit": 11412, "eia": 11413, "igi": 11414, "sel": 11415, "▁do": 11416, "imae": 11417, "lign": 11418, "▁Bib": 11419, "▁Ton": 11420, "▁actu": 11421, "▁pigr": 11422, "acibus": 11423, "anarum": 11424, "tiorum": 11425, "▁incur": 11426, "▁incons": 11427, "▁misere": 11428, "▁nummos": 11429, "▁quodsi": 11430, "▁termin": 11431, "▁Tiberis": 11432, "▁auderet": 11433, "▁nauibus": 11434, "▁succurr": 11435, "▁tacitus": 11436, "▁tulisse": 11437, "▁Africani": 11438, "▁aliisque": 11439, "▁conveniat": 11440, "▁occurrere": 11441, "▁quandoque": 11442, "▁Aristoteles": 11443, "▁contionibus": 11444, "olit": 11445, "▁Gem": 11446, "▁cox": 11447, "idior": 11448, "▁genu": 11449, "▁lani": 11450, "▁vibr": 11451, "archvs": 11452, "▁Decem": 11453, "▁epith": 11454, "▁mensa": 11455, "▁partu": 11456, "▁tolli": 11457, "▁Gallus": 11458, "▁Syriae": 11459, "▁attend": 11460, "▁ecquid": 11461, "▁exquir": 11462, "▁fideli": 11463, "▁lactis": 11464, "▁mallet": 11465, "▁recogn": 11466, "▁resper": 11467, "▁vineis": 11468, "▁Catilin": 11469, "▁aedilis": 11470, "▁cortice": 11471, "▁detulit": 11472, "▁dicione": 11473, "▁maledic": 11474, "▁praesag": 11475, "▁scirent": 11476, "▁subtrah": 11477, "▁Syphacem": 11478, "▁cognitis": 11479, "▁collibus": 11480, "▁imposita": 11481, "▁vinculis": 11482, "▁Corinthum": 11483, "▁postulare": 11484, "▁traduntur": 11485, "▁institutum": 11486, "▁praestitit": 11487, "▁scriptores": 11488, "orb": 11489, "omvs": 11490, "▁Ros": 11491, "▁pod": 11492, "▁sto": 11493, "▁syn": 11494, "incta": 11495, "▁Labi": 11496, "▁dent": 11497, "ientem": 11498, "▁DEMEA": 11499, "▁Magni": 11500, "▁confl": 11501, "▁intim": 11502, "▁semin": 11503, "▁sexus": 11504, "aemones": 11505, "▁Latium": 11506, "▁agenda": 11507, "▁cautum": 11508, "▁coacta": 11509, "▁confus": 11510, "▁eosque": 11511, "▁exstit": 11512, "▁imbres": 11513, "▁invito": 11514, "▁apertis": 11515, "▁concurs": 11516, "▁exstinc": 11517, "▁iucunda": 11518, "▁sanctum": 11519, "▁effectus": 11520, "▁nervorum": 11521, "▁vehemens": 11522, "▁virgines": 11523, "▁superiorem": 11524, "▁cogitatione": 11525, "▁inflammatio": 11526, "OR": 11527, "adi": 11528, "▁ara": 11529, "ulsit": 11530, "▁Scel": 11531, "▁lati": 11532, "▁noli": 11533, "idicvs": 11534, "▁Atqui": 11535, "▁Omnes": 11536, "▁arrip": 11537, "▁danda": 11538, "▁extim": 11539, "▁fudit": 11540, "▁inops": 11541, "▁ligis": 11542, "▁linqu": 11543, "▁necne": 11544, "▁paras": 11545, "▁turpi": 11546, "▁Quinti": 11547, "▁conuen": 11548, "▁cucurb": 11549, "▁flagit": 11550, "▁fulmen": 11551, "▁lectum": 11552, "▁adiecta": 11553, "▁agitare": 11554, "▁arboris": 11555, "▁cuspide": 11556, "▁iactura": 11557, "▁permitt": 11558, "▁venefic": 11559, "▁vestras": 11560, "▁congress": 11561, "▁fecerint": 11562, "▁fiduciam": 11563, "▁fortunas": 11564, "▁incorrup": 11565, "▁satisfac": 11566, "▁seditios": 11567, "▁censebant": 11568, "▁postremum": 11569, "▁repentina": 11570, "▁monumentum": 11571, "▁quingentis": 11572, "▁tradiderunt": 11573, "▁proficiscitur": 11574, "!'": 11575, "?’": 11576, "ón": 11577, "▁à": 11578, "DEM": 11579, "▁CHA": 11580, "▁Hec": 11581, "▁Mur": 11582, "occup": 11583, "tisse": 11584, "▁SIMO": 11585, "▁reme": 11586, "▁uoln": 11587, "▁vivi": 11588, "▁Aequi": 11589, "▁Multa": 11590, "▁aspar": 11591, "▁conui": 11592, "▁ilico": 11593, "▁orsus": 11594, "▁praen": 11595, "▁subol": 11596, "▁Domiti": 11597, "▁iacent": 11598, "▁permis": 11599, "▁recond": 11600, "▁scimus": 11601, "▁uestig": 11602, "▁antepon": 11603, "▁conflig": 11604, "▁feroces": 11605, "▁habetis": 11606, "▁integer": 11607, "▁tuendam": 11608, "▁Aegyptum": 11609, "▁Epidicvs": 11610, "▁certatim": 11611, "▁certatum": 11612, "▁contenta": 11613, "▁ducentis": 11614, "▁floribus": 11615, "▁habentes": 11616, "▁indictum": 11617, "▁integram": 11618, "▁Chrysalvs": 11619, "▁Rhodiorum": 11620, "▁clementia": 11621, "▁populares": 11622, "▁quaerimus": 11623, "▁tantumque": 11624, "▁communibus": 11625, "▁domesticis": 11626, "▁ostenditur": 11627, "▁prouinciam": 11628, "▁Hasdrubalis": 11629, "ost": 11630, "▁br": 11631, "ulso": 11632, "▁Rub": 11633, "▁Tri": 11634, "▁arx": 11635, "▁gel": 11636, "arint": 11637, "oscit": 11638, "▁Priv": 11639, "▁avis": 11640, "▁erig": 11641, "▁mont": 11642, "▁paen": 11643, "▁plor": 11644, "▁tuom": 11645, "▁teres": 11646, "▁uxori": 11647, "iturque": 11648, "▁collem": 11649, "▁collis": 11650, "▁contex": 11651, "▁dandum": 11652, "▁dehinc": 11653, "▁grande": 11654, "▁honori": 11655, "▁infans": 11656, "▁medias": 11657, "▁occasu": 11658, "▁sepeli": 11659, "▁servum": 11660, "▁sortis": 11661, "▁stagna": 11662, "▁Apuliam": 11663, "▁Proserp": 11664, "▁conclud": 11665, "▁dextrae": 11666, "▁diverso": 11667, "▁honorum": 11668, "▁insimul": 11669, "▁intrare": 11670, "▁moriens": 11671, "▁omissis": 11672, "▁pondera": 11673, "▁veritus": 11674, "▁Ualerius": 11675, "▁altitudo": 11676, "▁coniugem": 11677, "▁fontibus": 11678, "▁integris": 11679, "▁nationes": 11680, "▁praetorio": 11681, "▁propinqua": 11682, "▁ulceribus": 11683, "▁Hispanorum": 11684, "▁voluptatis": 11685, "▁Ba": 11686, "erte": 11687, "esis": 11688, "iden": 11689, "vero": 11690, "▁Lam": 11691, "▁Mer": 11692, "▁XXI": 11693, "▁ham": 11694, "▁iec": 11695, "▁Mihi": 11696, "▁cava": 11697, "▁cune": 11698, "▁dere": 11699, "▁diur": 11700, "aticum": 11701, "▁ferit": 11702, "▁inani": 11703, "▁iubes": 11704, "▁locos": 11705, "▁ponto": 11706, "▁teste": 11707, "▁Philop": 11708, "▁Syriam": 11709, "▁Thebas": 11710, "▁cadere": 11711, "▁deduci": 11712, "▁ducunt": 11713, "▁epulis": 11714, "▁itidem": 11715, "▁longas": 11716, "▁morari": 11717, "▁pugnas": 11718, "▁umbrae": 11719, "▁Tiberio": 11720, "▁faciles": 11721, "▁inferos": 11722, "▁potenti": 11723, "▁putaret": 11724, "▁dubitare": 11725, "▁familiam": 11726, "▁iacentem": 11727, "▁intersit": 11728, "▁pugnavit": 11729, "▁temptata": 11730, "▁victoris": 11731, "▁Charmides": 11732, "▁insidiarum": 11733, "▁difficilius": 11734, "edis": 11735, "ogit": 11736, "▁Bae": 11737, "▁Fav": 11738, "▁dit": 11739, "▁Arim": 11740, "▁Prob": 11741, "▁exta": 11742, "▁ruti": 11743, "errimo": 11744, "▁Libyc": 11745, "▁Philo": 11746, "▁gemin": 11747, "▁indec": 11748, "▁notam": 11749, "▁recto": 11750, "▁rumor": 11751, "▁salva": 11752, "▁suppl": 11753, "▁vitem": 11754, "uxisset": 11755, "▁adsuet": 11756, "▁aperit": 11757, "▁ciuium": 11758, "▁longam": 11759, "▁occisi": 11760, "▁peperc": 11761, "▁suppur": 11762, "▁valido": 11763, "▁villam": 11764, "▁discere": 11765, "▁idoneum": 11766, "▁istorum": 11767, "▁quietis": 11768, "▁quosque": 11769, "▁Popilius": 11770, "▁Sidonius": 11771, "▁decoctum": 11772, "▁incertus": 11773, "▁invectus": 11774, "▁matronae": 11775, "▁uteretur": 11776, "▁Theophras": 11777, "▁adhibenda": 11778, "▁caelestis": 11779, "▁coniuncta": 11780, "▁convivium": 11781, "▁tantundem": 11782, "▁Macedonibus": 11783, "▁consiliorum": 11784, "▁militaribus": 11785, "▁5": 11786, "pro": 11787, "ilum": 11788, "requ": 11789, "trix": 11790, "▁Age": 11791, "▁XVI": 11792, "▁astr": 11793, "▁enix": 11794, "▁phys": 11795, "▁pota": 11796, "▁thym": 11797, "eremur": 11798, "▁freti": 11799, "▁imber": 11800, "▁locat": 11801, "▁murus": 11802, "▁rudis": 11803, "▁tarde": 11804, "▁Oppian": 11805, "▁Seleuc": 11806, "▁calore": 11807, "▁condit": 11808, "▁crucem": 11809, "▁ignari": 11810, "▁strang": 11811, "▁teneat": 11812, "▁tenues": 11813, "▁fluvius": 11814, "▁parenti": 11815, "▁plurium": 11816, "▁siderum": 11817, "▁triplex": 11818, "▁viderit": 11819, "▁praemiis": 11820, "▁quaesita": 11821, "▁recessit": 11822, "▁redisset": 11823, "▁triumphos": 11824, "▁munitiones": 11825, "▁pulcherrim": 11826, "?—": 11827, "yde": 11828, "riae": 11829, "▁Ele": 11830, "▁Red": 11831, "▁mug": 11832, "tinus": 11833, "▁evol": 11834, "▁sera": 11835, "eretis": 11836, "▁Nulla": 11837, "▁adfic": 11838, "▁attig": 11839, "▁caeca": 11840, "▁ducti": 11841, "▁potum": 11842, "▁umore": 11843, "▁venas": 11844, "▁Asclep": 11845, "▁beatus": 11846, "▁constr": 11847, "▁murmur": 11848, "▁prostr": 11849, "▁tractu": 11850, "▁uallum": 11851, "▁Maximum": 11852, "▁acceper": 11853, "▁auditus": 11854, "▁cepisse": 11855, "▁indicat": 11856, "▁statuam": 11857, "▁sumptus": 11858, "▁temptat": 11859, "▁Pyrgopol": 11860, "▁imperiis": 11861, "▁agerentur": 11862, "▁appellare": 11863, "▁circumven": 11864, "▁huiusmodi": 11865, "▁coniugibus": 11866, "▁sacramento": 11867, "▁sequerentur": 11868, "▁centurionibus": 11869, "NIS": 11870, "agn": 11871, "aeae": 11872, "igit": 11873, "rius": 11874, "taph": 11875, "▁Rex": 11876, "tilio": 11877, "▁Otac": 11878, "▁flos": 11879, "▁subr": 11880, "everat": 11881, "▁novit": 11882, "▁nupti": 11883, "▁ornat": 11884, "▁parvi": 11885, "▁sanat": 11886, "▁stant": 11887, "▁utero": 11888, "▁volut": 11889, "itudini": 11890, "▁aestas": 11891, "▁compet": 11892, "▁elatus": 11893, "▁fontem": 11894, "▁uestra": 11895, "▁Oceanum": 11896, "▁conquis": 11897, "▁miseros": 11898, "▁navalis": 11899, "▁pedestr": 11900, "▁saeculi": 11901, "▁tristes": 11902, "▁Illyrico": 11903, "▁excedere": 11904, "▁commissum": 11905, "▁complexus": 11906, "▁pugnandum": 11907, "▁resistere": 11908, "▁sustineri": 11909, "▁universum": 11910, "▁curationem": 11911, "▁lictoribus": 11912, "▁ligisticum": 11913, "▁exercitumque": 11914, "cam": 11915, "▁hó": 11916, "erog": 11917, "iluit": 11918, "▁Gorg": 11919, "▁Paul": 11920, "▁Poll": 11921, "▁acti": 11922, "▁alae": 11923, "▁obru": 11924, "▁uino": 11925, "uitate": 11926, "▁Furio": 11927, "▁Gallo": 11928, "▁Polyx": 11929, "▁Scaev": 11930, "▁inson": 11931, "▁iocin": 11932, "▁rates": 11933, "▁ratis": 11934, "▁sonus": 11935, "▁Attali": 11936, "▁doctus": 11937, "▁inplic": 11938, "▁lectus": 11939, "▁respir": 11940, "▁solere": 11941, "▁fratrum": 11942, "▁privati": 11943, "▁sineret": 11944, "▁turbine": 11945, "▁ceperunt": 11946, "▁paululum": 11947, "▁proceres": 11948, "▁sortitus": 11949, "▁vobiscum": 11950, "▁Postumium": 11951, "▁Thessalia": 11952, "▁episcopus": 11953, "▁tribunali": 11954, "▁voluntatis": 11955, "▁tempestatibus": 11956, "cipe": 11957, "edia": 11958, "eriae": 11959, "▁Clus": 11960, "▁Phal": 11961, "itauit": 11962, "▁bubus": 11963, "▁mares": 11964, "▁queat": 11965, "▁sicca": 11966, "▁ualid": 11967, "ietibus": 11968, "▁Antium": 11969, "▁acrior": 11970, "▁calido": 11971, "▁canere": 11972, "▁dubius": 11973, "▁exilio": 11974, "▁fueris": 11975, "▁gremio": 11976, "▁morsus": 11977, "▁ration": 11978, "▁somnia": 11979, "▁videas": 11980, "▁Cereris": 11981, "▁Fulvium": 11982, "▁ceperat": 11983, "▁flammae": 11984, "▁incerti": 11985, "▁maritus": 11986, "▁misisse": 11987, "▁pendere": 11988, "▁perpetr": 11989, "▁positus": 11990, "▁probari": 11991, "▁regnare": 11992, "▁relicti": 11993, "▁sumpsit": 11994, "▁tenuere": 11995, "▁tribuit": 11996, "▁coeperit": 11997, "▁fortunis": 11998, "▁inimicos": 11999, "▁privatum": 12000, "▁videamus": 12001, "entibusque": 12002, "▁civitatum": 12003, "▁disseruit": 12004, "▁epistulae": 12005, "▁felicitas": 12006, "▁ceterisque": 12007, "▁comprehend": 12008, "▁exercituum": 12009, "▁ostenderet": 12010, "▁praefectos": 12011, "hem": 12012, "ibit": 12013, "▁Aeo": 12014, "▁nar": 12015, "▁Atin": 12016, "▁Prus": 12017, "▁coag": 12018, "▁scap": 12019, "▁thes": 12020, "entque": 12021, "itoque": 12022, "▁beati": 12023, "▁ensem": 12024, "▁imman": 12025, "▁incoh": 12026, "▁inrup": 12027, "▁loque": 12028, "orundam": 12029, "▁nocere": 12030, "▁supell": 12031, "▁Acilius": 12032, "▁cupiens": 12033, "▁discrep": 12034, "▁extulit": 12035, "▁occulte": 12036, "▁oratori": 12037, "▁putabat": 12038, "▁ultimis": 12039, "▁ecclesia": 12040, "▁superbum": 12041, "▁Illyricum": 12042, "▁Philopoem": 12043, "▁Sulpicium": 12044, "▁continere": 12045, "▁stomachum": 12046, "▁quaestores": 12047, "▁superioris": 12048, "uct": 12049, "olet": 12050, "pote": 12051, "▁Afr": 12052, "▁Exc": 12053, "▁Tac": 12054, "narum": 12055, "ubuit": 12056, "▁Haem": 12057, "▁edit": 12058, "▁imis": 12059, "▁reor": 12060, "▁vada": 12061, "antior": 12062, "inctus": 12063, "ynices": 12064, "▁fessi": 12065, "▁impia": 12066, "▁levem": 12067, "▁nigro": 12068, "▁vivum": 12069, "abilior": 12070, "▁Quorum": 12071, "▁cantus": 12072, "▁murrae": 12073, "▁parvum": 12074, "▁socius": 12075, "▁veniet": 12076, "▁adolesc": 12077, "▁annonae": 12078, "▁apostol": 12079, "▁conquir": 12080, "▁conuers": 12081, "▁ictibus": 12082, "▁illustr": 12083, "▁invasit": 12084, "▁iuuenis": 12085, "▁lapides": 12086, "▁prudens": 12087, "▁rettuli": 12088, "▁trahunt": 12089, "▁effugere": 12090, "▁militare": 12091, "▁propalam": 12092, "▁redditur": 12093, "▁referunt": 12094, "▁restitui": 12095, "▁secundus": 12096, "▁apparatus": 12097, "▁cubiculum": 12098, "▁maritimam": 12099, "▁praesente": 12100, "▁adulescent": 12101, "▁censuisset": 12102, "▁dimicandum": 12103, "▁ignominiae": 12104, "▁senectutem": 12105, "éc": 12106, "▁Dr": 12107, "▁Inv": 12108, "▁Leg": 12109, "▁obn": 12110, "saque": 12111, "tatos": 12112, "▁agas": 12113, "▁marc": 12114, "▁sulp": 12115, "▁toro": 12116, "▁ulul": 12117, "eratos": 12118, "▁Magna": 12119, "▁beniv": 12120, "▁grass": 12121, "▁istas": 12122, "▁mutua": 12123, "▁redde": 12124, "▁absolv": 12125, "▁alicui": 12126, "▁fessos": 12127, "▁luxuri": 12128, "▁mixtum": 12129, "▁moliri": 12130, "▁seruit": 12131, "▁summov": 12132, "▁ultimo": 12133, "▁Interim": 12134, "▁deesset": 12135, "▁eiusque": 12136, "▁pollice": 12137, "▁quidque": 12138, "▁radicem": 12139, "▁timoris": 12140, "entissimo": 12141, "▁Campanum": 12142, "▁fortibus": 12143, "▁omnisque": 12144, "▁portarum": 12145, "▁subsidia": 12146, "▁incolumem": 12147, "▁tenuerunt": 12148, "▁transeunt": 12149, "▁conveniunt": 12150, "▁elephantis": 12151, "▁praefectis": 12152, "▁serpentium": 12153, "▁Hippocrates": 12154, "cas": 12155, "ibo": 12156, "myr": 12157, "ose": 12158, "ppo": 12159, "grav": 12160, "▁CLI": 12161, "▁Dio": 12162, "▁Sca": 12163, "▁ala": 12164, "▁meh": 12165, "▁Grip": 12166, "▁emic": 12167, "anctus": 12168, "ilibet": 12169, "▁cocle": 12170, "▁colle": 12171, "▁congl": 12172, "▁decid": 12173, "▁virus": 12174, "▁Periph": 12175, "▁adverb": 12176, "▁campus": 12177, "▁gaudeo": 12178, "▁iniqua": 12179, "▁resina": 12180, "▁sordid": 12181, "▁utpote": 12182, "▁vacuum": 12183, "▁Graecum": 12184, "▁Lucanus": 12185, "▁Praeter": 12186, "▁creavit": 12187, "▁flammam": 12188, "▁petenti": 12189, "▁quamdiu": 12190, "▁veritas": 12191, "▁delectat": 12192, "▁receptis": 12193, "▁factionis": 12194, "▁multiplex": 12195, "▁populoque": 12196, "▁universis": 12197, "▁desiderant": 12198, "▁scripsisse": 12199, "▁diligentiam": 12200, "▁exercitusque": 12201, "OM": 12202, "RE": 12203, "llas": 12204, "olli": 12205, "inari": 12206, "inati": 12207, "▁Tant": 12208, "▁haur": 12209, "▁tort": 12210, "▁Curio": 12211, "▁reson": 12212, "▁sucum": 12213, "▁volgo": 12214, "▁carnem": 12215, "▁conatu": 12216, "▁credat": 12217, "▁dignam": 12218, "▁febres": 12219, "▁hastis": 12220, "▁rabiem": 12221, "▁turres": 12222, "▁Numquid": 12223, "▁armenta": 12224, "▁concret": 12225, "▁excidit": 12226, "▁iniecta": 12227, "▁molesti": 12228, "▁omittam": 12229, "▁tabulae": 12230, "▁tristem": 12231, "▁Campania": 12232, "▁Etruscos": 12233, "▁muliebri": 12234, "▁relinqui": 12235, "▁strepitu": 12236, "ationemque": 12237, "▁contineri": 12238, "▁dedissent": 12239, "▁libentius": 12240, "▁praeoccup": 12241,
[...]
